<pad>	0
<s>	0
</s>	0
<unk>	0
.	-2.19534
'	-3.75201
▁I	-3.82511
▁Tom	-3.85659
▁టామ్	-3.85722
?	-3.985
▁నేను	-4.19917
▁to	-4.2012
t	-4.44525
▁you	-4.57998
▁the	-4.6156
▁a	-4.70995
s	-4.74512
ని	-4.8402
▁మీరు	-4.91932
▁is	-5.00073
▁	-5.00706
▁that	-5.09455
ు	-5.13653
,	-5.15023
కు	-5.17453
▁నాకు	-5.24022
ను	-5.28756
▁మీ	-5.33095
▁was	-5.36631
n	-5.42756
▁in	-5.47806
▁me	-5.54557
▁Mary	-5.60105
▁of	-5.63724
▁do	-5.67783
గా	-5.7063
▁చాలా	-5.7297
▁నా	-5.75258
▁did	-5.76473
▁have	-5.8253
▁it	-5.84064
m	-5.8672
▁for	-5.87137
▁మేరీ	-5.88126
▁know	-5.8833
▁don	-5.91005
▁We	-5.92825
▁ఈ	-5.96539
▁అతను	-5.96567
▁be	-5.96569
ా	-6.00326
▁ఇది	-6.01011
కి	-6.0144
▁The	-6.039
▁he	-6.04586
▁You	-6.0532
▁మేము	-6.05772
▁this	-6.06946
▁ఉంది	-6.10773
▁He	-6.11843
▁can	-6.12394
▁want	-6.15884
▁and	-6.17851
▁with	-6.19166
▁ఒక	-6.19498
▁my	-6.20673
▁his	-6.21508
▁think	-6.22779
▁ఆమె	-6.24125
▁on	-6.24479
ve	-6.2468
▁not	-6.25234
▁are	-6.26526
▁తన	-6.27168
▁లేదు	-6.31045
లో	-6.31754
▁తెలుసు	-6.32744
▁like	-6.34239
▁your	-6.34461
▁what	-6.36031
re	-6.36204
ll	-6.3661
▁కు	-6.38283
ో	-6.41591
▁It	-6.42004
▁has	-6.43006
d	-6.44376
▁మరియ	-6.49052
▁at	-6.51148
▁go	-6.51841
▁ను	-6.55303
▁మా	-6.55569
▁ఏమి	-6.55984
ీ	-6.57429
▁about	-6.58896
▁అలా	-6.59159
▁What	-6.59961
తో	-6.6374
▁గురించి	-6.63866
▁here	-6.68278
▁నన్ను	-6.70079
▁అని	-6.70659
▁will	-6.70735
▁very	-6.70794
ed	-6.71457
డానికి	-6.72623
▁తెలియదు	-6.73706
▁కోసం	-6.7375
ాన్ని	-6.74815
▁ఇక్కడ	-6.75458
▁అది	-6.75877
▁She	-6.76267
▁Do	-6.76296
▁going	-6.77513
▁చెప్పాడు	-6.77662
▁ఎందుకు	-6.77903
▁time	-6.79536
▁had	-6.80962
▁we	-6.81786
▁all	-6.83458
▁అతని	-6.84004
▁told	-6.8458
▁This	-6.84737
▁వారు	-6.84796
్ని	-6.85019
▁కాదు	-6.85291
▁సహాయం	-6.86243
▁లో	-6.86767
▁get	-6.88118
▁him	-6.88664
▁నుండి	-6.90536
▁us	-6.91574
ి	-6.92298
ం	-6.92458
▁Boston	-6.92959
▁were	-6.93301
▁said	-6.94074
▁need	-6.9504
▁That	-6.95332
▁How	-6.9616
▁They	-6.96369
▁help	-6.96606
▁would	-6.97049
ే	-6.98033
▁one	-6.98611
ing	-6.99088
ూ	-6.99222
▁బోస్టన్	-6.99569
▁దాని	-7.00741
▁doesn	-7.00971
ాడు	-7.01454
▁ఎలా	-7.02459
▁tell	-7.02578
▁ఆ	-7.03207
▁ఉన్నాడు	-7.03219
▁up	-7.06411
▁out	-7.06798
▁ఎప్పుడూ	-7.08391
▁never	-7.08969
▁as	-7.09493
▁ఎక్కడ	-7.1074
▁Why	-7.10839
▁her	-7.10932
ైనా	-7.13003
డు	-7.13197
▁been	-7.13607
▁రోజు	-7.13722
▁should	-7.14019
▁from	-7.16663
▁could	-7.18738
▁good	-7.20351
▁an	-7.21082
్	-7.21186
▁ఉన్నారు	-7.23575
▁just	-7.24237
ల్	-7.24689
▁there	-7.25059
▁ఇంక	-7.25201
▁పని	-7.26931
▁got	-7.27451
▁so	-7.28992
▁My	-7.29078
▁see	-7.29187
▁Did	-7.29689
▁now	-7.30002
▁by	-7.3006
▁There	-7.31295
▁isn	-7.31737
▁no	-7.318
▁మేరీని	-7.32191
▁ఇప్పుడు	-7.32435
▁అనుకుంటున్నాను	-7.32502
▁Don	-7.3289
▁than	-7.33109
▁ఫ్రెంచ్	-7.33708
▁French	-7.33836
▁come	-7.35304
▁మంచి	-7.36513
▁who	-7.36572
▁అవసరం	-7.367
ly	-7.38221
▁much	-7.38567
ాలనుకుంటున్నాను	-7.39031
▁home	-7.39439
▁తో	-7.39846
లు	-7.40153
▁సమయం	-7.40159
ానికి	-7.40733
▁ఇష్టం	-7.40813
▁దీన	-7.41195
ంగా	-7.42104
▁తిరిగి	-7.42198
▁ఉన్నాను	-7.42338
▁too	-7.42966
▁ఉన్నాయి	-7.4312
▁back	-7.4403
▁how	-7.44383
▁అనుకోను	-7.44388
▁won	-7.44955
▁anything	-7.48013
▁work	-7.48797
▁three	-7.48979
పై	-7.49182
▁Are	-7.49552
▁ఎవర	-7.49643
▁ఇంటి	-7.49692
▁thought	-7.5047
if	-7.51133
▁something	-7.51168
▁car	-7.51446
▁really	-7.51633
▁మిమ్మ	-7.52396
ింది	-7.54109
▁నిజంగా	-7.54581
▁more	-7.54666
▁but	-7.54813
▁ఎంత	-7.56176
▁P	-7.56231
▁wanted	-7.56748
▁lot	-7.57491
▁ఏమీ	-7.57715
▁still	-7.58202
డం	-7.58377
▁talk	-7.5918
▁Let	-7.59602
▁money	-7.59852
▁day	-7.60833
▁బాగా	-7.60937
▁Can	-7.62771
!	-7.62894
▁ఎక్కువ	-7.64015
▁asked	-7.64173
▁దయచేసి	-7.64276
▁take	-7.65334
▁when	-7.65746
▁చేశాడు	-7.66953
▁always	-7.67553
e	-7.67711
▁Who	-7.68242
రు	-7.68339
కంటే	-7.68676
▁knew	-7.68723
▁ప్రతి	-7.68855
▁అక్కడ	-7.69161
▁last	-7.69362
▁some	-7.69452
▁యొక్క	-7.69454
▁డబ్బు	-7.69679
▁say	-7.6978
▁తప్పు	-7.70282
▁కూడా	-7.70559
▁any	-7.71442
▁right	-7.7149
▁today	-7.71597
▁ఖచ్చితంగా	-7.7224
ాను	-7.72562
▁వేచి	-7.74335
నే	-7.74599
▁ఎవరు	-7.75192
▁Where	-7.75301
▁ఇప్పటిక	-7.7572
▁only	-7.75875
ండి	-7.7686
ది	-7.77251
▁sure	-7.77264
▁వచ్చింది	-7.7887
▁eat	-7.79714
▁మూడు	-7.79788
▁people	-7.80281
▁చేయడానికి	-7.80803
▁house	-7.81165
▁where	-7.81443
▁లేదా	-7.81537
▁అర్థం	-7.82242
▁A	-7.8262
▁she	-7.8265
▁went	-7.833
lease	-7.83807
▁why	-7.83813
▁long	-7.83998
▁doing	-7.85577
ారు	-7.86032
▁many	-7.86078
f	-7.86153
▁చేయాల	-7.86266
▁Is	-7.8709
▁మనం	-7.87728
▁buy	-7.87822
▁చేయ	-7.88279
ికి	-7.88422
▁love	-7.88596
▁knows	-7.88672
▁again	-7.88992
▁ఉంటుంది	-7.89039
▁left	-7.89246
▁leave	-7.89269
▁ఏదో	-7.89944
▁our	-7.90308
▁find	-7.90502
▁new	-7.90518
▁మాత్రమే	-7.90595
ాము	-7.90709
టానికి	-7.91388
▁అనుకున్నాను	-7.91396
▁room	-7.91974
▁book	-7.92245
▁already	-7.92307
▁రేపు	-7.92545
-	-7.92769
▁school	-7.92769
▁made	-7.93249
▁they	-7.93447
▁give	-7.93522
▁make	-7.93527
▁నిన్న	-7.94389
▁tomorrow	-7.94637
స్	-7.95498
▁speak	-7.95862
▁ఉందా	-7.96481
▁must	-7.9654
▁మీద	-7.96803
▁believe	-7.97143
▁happened	-7.98075
▁ముందు	-7.98475
▁does	-7.98527
▁better	-7.9885
▁కలిసి	-7.99203
▁am	-7.99203
▁కారు	-8.00352
▁old	-8.00468
▁తాను	-8.00502
▁way	-8.00613
▁before	-8.01971
▁well	-8.02171
▁ఉందని	-8.02875
▁off	-8.03638
లేదు	-8.03661
▁కావాలి	-8.038
ము	-8.03833
▁years	-8.04289
▁నిన్ను	-8.04545
▁done	-8.05265
▁hope	-8.05739
▁సంతోషం	-8.0585
▁రాత్రి	-8.05962
▁stay	-8.07231
▁Australia	-8.07445
▁కొత్త	-8.08209
▁ఏద	-8.08424
▁into	-8.09501
▁wants	-8.09875
▁job	-8.09971
▁yet	-8.10023
▁over	-8.10299
▁saw	-8.10851
▁దీని	-8.11189
▁down	-8.11471
▁మంది	-8.11486
▁దగ్గర	-8.11826
▁కొన్ని	-8.12439
▁ఏ	-8.1253
▁When	-8.12811
▁మీతో	-8.13266
▁ఏమిటి	-8.13312
▁వ్యక్తి	-8.13328
మని	-8.13581
▁everything	-8.14521
▁yesterday	-8.14665
▁పూర్తి	-8.14953
▁live	-8.15086
▁పెద్ద	-8.15175
y	-8.15311
▁ఇంట్లో	-8.15388
▁or	-8.15425
▁other	-8.15538
▁కలిగి	-8.15611
▁understand	-8.15705
▁father	-8.16116
▁next	-8.16701
▁పుస్తకం	-8.16835
▁every	-8.16875
ుగా	-8.17109
▁came	-8.17287
▁used	-8.18092
▁hard	-8.18149
▁అంత	-8.1826
▁ask	-8.18274
▁సమస్య	-8.18308
▁look	-8.18749
▁కి	-8.19651
▁మళ్ళ	-8.20445
▁ever	-8.20541
▁often	-8.20599
▁Have	-8.20912
▁ga	-8.2093
▁happy	-8.21056
▁తెలుసా	-8.21428
▁T	-8.21656
▁తరచ	-8.21673
▁play	-8.22108
▁friends	-8.22581
▁bought	-8.22604
▁మాట్లాడ	-8.22863
▁dog	-8.22905
ంతా	-8.2325
▁వివాహం	-8.2355
▁చెప్పాను	-8.23611
▁చేయడం	-8.23613
▁them	-8.23884
▁అందరూ	-8.24018
▁late	-8.24064
▁little	-8.24333
▁wait	-8.24417
er	-8.24574
▁వద్ద	-8.24755
▁ఉండాలి	-8.249
▁put	-8.2513
▁name	-8.25216
▁problem	-8.25544
▁ఒంటరిగా	-8.25781
▁కుక్క	-8.26299
▁పాఠశాల	-8.26885
▁wrong	-8.26903
▁ఎప్పుడు	-8.26939
▁night	-8.27066
▁nothing	-8.27724
▁ఆలస్యం	-8.27884
▁took	-8.28263
▁కోరుకుంటున్నాను	-8.28392
▁busy	-8.28397
▁చూడ	-8.28648
l	-8.28661
▁అతన	-8.28757
▁call	-8.28784
▁married	-8.29042
▁anyone	-8.29387
▁man	-8.29415
▁ఇక	-8.29544
▁బిజీ	-8.29876
▁No	-8.3013
▁let	-8.30209
▁away	-8.3026
▁కాని	-8.30633
▁కొంచెం	-8.31227
▁అనుకుంటున్నారా	-8.31231
▁read	-8.31249
▁కాన	-8.31347
▁తలుపు	-8.31567
▁children	-8.31738
▁two	-8.32423
▁పేరు	-8.3364
▁door	-8.33733
▁చేయలేదు	-8.33894
▁చేస్తాను	-8.3402
▁O	-8.34207
న	-8.34279
దు	-8.34358
▁says	-8.34762
▁win	-8.35157
▁సమాధానం	-8.3539
ింగ్	-8.35485
▁alone	-8.35567
▁week	-8.35584
▁చెప్పారు	-8.36022
▁గత	-8.36149
▁నిజం	-8.36285
▁first	-8.36997
▁happen	-8.37177
▁found	-8.37282
▁మేరీతో	-8.3768
ting	-8.37872
ర్	-8.38051
లను	-8.38212
▁afraid	-8.38266
▁idea	-8.38998
▁else	-8.39181
▁ఉన్న	-8.39561
▁even	-8.39643
▁ఉన్నారా	-8.39755
▁తనకు	-8.39861
▁looking	-8.40425
ాలి	-8.4094
able	-8.41275
▁morning	-8.41414
▁enough	-8.41791
▁గది	-8.41927
▁anymore	-8.4274
▁వారి	-8.42746
▁దాదాపు	-8.43122
▁చేయాలి	-8.43147
▁చెప్పలేదు	-8.43968
▁రెండు	-8.44105
▁lost	-8.45249
▁నాతో	-8.45443
▁seen	-8.45481
▁తరువాత	-8.45641
▁Tell	-8.45838
▁same	-8.45839
▁life	-8.46239
▁విషయం	-8.46298
▁remember	-8.46701
▁లేదని	-8.46911
▁heard	-8.46984
▁సిద్ధం	-8.47025
▁ఎ	-8.47541
▁bad	-8.47761
ారా	-8.4833
▁బహుశా	-8.48427
▁tried	-8.48832
▁haven	-8.48856
▁after	-8.49387
▁feel	-8.49496
st	-8.49658
▁ఎవరో	-8.49892
▁almo	-8.50337
▁water	-8.5151
▁చెప్పండి	-8.51535
▁కాదా	-8.51715
▁ఈత	-8.51927
▁వచ్చే	-8.52129
▁వైపు	-8.52129
se	-8.52207
▁thing	-8.52309
▁ఉదయం	-8.52564
▁without	-8.52768
▁stop	-8.52995
▁సులభం	-8.53622
ాలనుకుంటున్నారా	-8.53759
▁himself	-8.53817
▁year	-8.54056
▁try	-8.54155
▁mother	-8.54245
▁ఉండాల	-8.54322
▁soon	-8.54878
▁జరిగిందో	-8.54934
▁May	-8.55321
▁ఇచ్చాడు	-8.55573
▁వచ్చాడు	-8.56031
లా	-8.56208
నని	-8.56342
క	-8.56344
▁together	-8.56406
ాలని	-8.56619
▁మంచిది	-8.5699
▁hear	-8.57499
▁their	-8.5799
▁చూశాను	-8.58212
▁likes	-8.58293
▁ఫోన్	-8.58563
▁అదే	-8.58651
▁కష్టం	-8.58651
▁పిల్లల	-8.58734
▁answer	-8.58881
ల్ల	-8.59041
▁friend	-8.59257
▁తల్లి	-8.59386
▁tired	-8.60202
▁వరకు	-8.60337
▁both	-8.60355
▁question	-8.60693
▁plan	-8.60755
▁వర్షం	-8.6088
▁died	-8.60966
▁things	-8.61138
▁ఎవరిక	-8.61866
▁quit	-8.61874
▁కొంత	-8.6231
▁talking	-8.62981
▁ఆస్ట్రేలియా	-8.63008
▁cold	-8.63162
▁తండ్రి	-8.63303
ాయి	-8.63394
▁may	-8.63873
▁s	-8.6393
▁చేయండి	-8.63982
▁అడిగాడు	-8.64133
▁Does	-8.64206
▁అన్ని	-8.64714
▁best	-8.65054
▁తిన	-8.65329
▁truth	-8.65556
▁ఉండ	-8.65586
ంది	-8.6573
▁వారం	-8.66083
▁ప్రశ్న	-8.66611
▁పిల్లలు	-8.67019
▁చేశారు	-8.6749
▁ago	-8.6756
▁looks	-8.67683
▁police	-8.67733
▁మమ్మల	-8.67735
▁waiting	-8.68122
▁drink	-8.68246
▁ready	-8.68268
▁trying	-8.68332
▁teacher	-8.68344
దాన్ని	-8.68623
ther	-8.68804
▁సమయంలో	-8.6888
▁త్వరగా	-8.68967
▁parents	-8.68979
య	-8.69166
▁క్రితం	-8.69215
▁open	-8.69248
▁ఉద్యోగం	-8.69583
▁ఉన్నార	-8.69707
th	-8.69779
▁అంటే	-8.69969
▁ఉన్నాము	-8.70071
▁beautiful	-8.70465
▁decided	-8.70501
▁బయటకు	-8.70786
త	-8.70796
▁కాఫీ	-8.70969
వద్దు	-8.70979
▁చెప్ప	-8.71189
▁kind	-8.7122
▁coffee	-8.71222
ప్పుడూ	-8.71455
▁each	-8.71476
▁అవకాశం	-8.71492
a	-8.72077
▁స్నేహితులు	-8.72444
▁looked	-8.72448
▁ఇల్లు	-8.72498
▁లేకుండా	-8.72756
▁working	-8.73332
▁ఆలోచన	-8.73504
al	-8.73547
▁వెళ్ల	-8.73687
▁English	-8.74056
▁bus	-8.74152
▁big	-8.74571
▁train	-8.74573
▁సాధారణంగా	-8.74625
▁చేసిన	-8.74674
▁few	-8.74836
▁గదిలో	-8.7492
▁ఉన్నాడ	-8.75465
▁easy	-8.75627
ట్లు	-8.75641
▁1	-8.75742
▁true	-8.75894
▁చేయమ	-8.75908
▁brother	-8.76092
▁కొన	-8.76548
▁గంటలకు	-8.76822
r	-8.77062
▁please	-8.77085
▁early	-8.77236
▁bed	-8.77476
▁ఆశ్చర్యపోతున్నా	-8.77523
▁ఎప్పుడ	-8.77626
▁చిన్న	-8.7765
▁started	-8.77858
▁wonder	-8.77915
▁Your	-8.7802
మైన	-8.78177
▁నిర్ణయించుకున్న	-8.78202
జ్	-8.78533
▁around	-8.78858
▁phone	-8.78968
▁వెళ్ళాడు	-8.78995
▁Everyone	-8.79132
న్నీ	-8.79313
ur	-8.7972
▁needs	-8.79934
▁His	-8.80014
▁called	-8.80438
▁వెళ్లాల	-8.80709
నా	-8.80748
▁watch	-8.80845
▁నమ్ముతున్నాను	-8.81087
▁being	-8.81253
▁hate	-8.81281
▁దాన్ని	-8.81318
▁person	-8.81333
ల	-8.81348
▁sleep	-8.82042
▁ఇవ్వండి	-8.8223
▁తెలుసుకోవ	-8.82415
▁turn	-8.82534
▁కాలేదు	-8.8256
▁place	-8.82766
▁change	-8.82868
▁care	-8.83334
▁food	-8.8335
▁క్షమించండి	-8.83632
▁ఆశిస్తున్నాను	-8.83633
ట్	-8.8408
▁difficult	-8.84162
▁పార్టీ	-8.84485
▁జరిగింది	-8.84528
▁swim	-8.84774
▁భార్య	-8.84775
▁another	-8.84797
▁books	-8.84933
▁చూడలేదు	-8.8495
▁"	-8.85065
▁mind	-8.85066
▁ఎప్పటికీ	-8.8507
▁మాట్లాడటం	-8.85076
▁keep	-8.85359
▁anybody	-8.85396
▁ఉండటానికి	-8.854
▁తగినంత	-8.8565
▁walk	-8.85732
▁లేడు	-8.85878
▁seems	-8.85902
▁doctor	-8.85942
▁లేఖ	-8.85943
▁days	-8.86039
▁John	-8.86237
▁Monday	-8.86241
▁సోమవారం	-8.86532
▁party	-8.86547
▁లేరు	-8.86734
cause	-8.86742
▁జాన్	-8.86837
▁wife	-8.87445
▁చేశార	-8.87709
▁ప్రతిదీ	-8.87723
▁చేస్తారు	-8.87897
ంత	-8.87965
▁వేగంగా	-8.88659
▁young	-8.88783
▁ఉంటాడు	-8.89209
▁letter	-8.89275
▁జాగ్రత్త	-8.8953
▁ఇప్పుడే	-8.89835
▁కాదని	-8.89854
▁agree	-8.90011
▁మార్గం	-8.90282
uch	-8.90472
▁వారికి	-8.90551
▁use	-8.90582
▁seem	-8.90684
▁చేసాను	-8.90757
▁pay	-8.90968
▁these	-8.91014
కుండా	-8.91041
▁Nobody	-8.91064
▁మాట	-8.91169
▁study	-8.91282
▁కాలం	-8.91524
▁చేశాను	-8.91973
▁great	-8.92014
▁ప్రయత్నిస్తున్న	-8.92253
వ	-8.92355
▁ఉండండి	-8.92362
▁learn	-8.92408
▁చేస్తున్నాను	-8.92422
▁ఎవరి	-8.9266
▁ప్రేమ	-8.92783
▁తక్కువ	-8.92936
▁ఆడ	-8.93089
▁questions	-8.9319
▁myself	-8.93252
▁ఆస్ట్రేలియాలో	-8.94132
▁might	-8.94205
▁hours	-8.94429
▁family	-8.94524
▁boy	-8.94613
▁విన్నాను	-8.94853
▁sister	-8.94936
▁write	-8.95483
▁someone	-8.95491
▁సలహా	-8.9575
▁forget	-8.9581
▁mistake	-8.96124
▁lives	-8.9615
▁sing	-8.96195
▁అనారోగ్యం	-8.96299
▁భోజనం	-8.96501
p	-8.96525
▁ప్రణాళిక	-8.96546
▁show	-8.96631
▁Would	-8.96789
▁ఆయన	-8.96874
o	-8.96914
▁while	-8.97117
▁W	-8.97198
కన్నా	-8.97304
▁S	-8.97525
▁gone	-8.9754
▁All	-8.97679
▁ద్వారా	-8.97797
▁ఎన్ని	-8.97848
▁sorry	-8.98439
▁త్వరలో	-8.98439
▁hand	-8.98458
▁coming	-8.98513
▁మన	-8.98523
▁చేస్తాడు	-8.98533
▁sick	-8.98628
▁అంతా	-8.98682
▁glad	-8.98773
▁ఉన్నాన	-8.98796
▁unti	-8.98901
▁ప్రమాదం	-8.99266
▁yourself	-8.99443
▁dinner	-8.99779
▁probably	-8.99779
▁వాగ్దాన	-8.99791
▁ప్రజలు	-8.99986
▁ఇంతకు	-9.00309
▁wish	-9.00784
▁ఆహారం	-9.01527
గలరా	-9.01943
▁son	-9.02033
ప్	-9.02048
▁పాత	-9.02117
▁own	-9.0227
▁ఇవ్వ	-9.02333
▁needed	-9.02438
▁times	-9.02604
▁trust	-9.02741
▁meet	-9.02788
▁wearing	-9.02916
▁longer	-9.02948
▁meeting	-9.02954
▁ఒకటి	-9.03028
▁మాతో	-9.03028
▁ఇద్దర	-9.03192
▁important	-9.03211
be	-9.03282
▁everyone	-9.03562
▁surprised	-9.0362
▁టీవీ	-9.03729
▁girl	-9.03748
▁సంవత్సరం	-9.04083
▁గురువు	-9.04263
▁angry	-9.04616
▁Could	-9.04971
▁తెలియదా	-9.04972
▁table	-9.04986
▁మంచు	-9.05525
▁వాటి	-9.06042
▁అబద్ధం	-9.06044
▁చూశాడు	-9.06044
▁నీరు	-9.06058
న్	-9.06075
▁ముప్పై	-9.06082
రా	-9.06173
▁pretty	-9.06402
▁hurt	-9.0661
▁నాన్న	-9.06865
▁window	-9.06979
▁ఇంత	-9.06979
▁drive	-9.07316
▁lunch	-9.07489
▁రైలు	-9.07672
es	-9.07717
▁ఆందోళన	-9.07854
▁ధన్యవాదాలు	-9.07865
▁thirty	-9.08267
▁విందు	-9.08298
▁ఇష్టపడలేదు	-9.08381
▁start	-9.08465
వచ్చు	-9.08633
c	-9.08831
▁దూరంగా	-9.08856
▁minutes	-9.08913
▁rain	-9.08951
▁డాక్టర్	-9.08957
▁కాబట్టి	-9.08957
▁వేడి	-9.08957
▁మరింత	-9.08958
▁ఇంగ్లీష్	-9.08966
▁అందంగా	-9.08993
▁తప్ప	-9.09124
▁చెప్పు	-9.09152
▁తయారు	-9.09174
▁world	-9.09327
▁చేస్తున్నారు	-9.09335
▁బ	-9.09431
▁కావాల	-9.09617
▁కొన్నాడు	-9.09726
ually	-9.09899
▁ఉంటాను	-9.09909
▁అందమైన	-9.10017
ొకర	-9.10184
▁matter	-9.10318
▁hair	-9.10447
▁ఇష్టపడతాడు	-9.10828
▁lived	-9.10862
▁bit	-9.10991
▁most	-9.1129
▁chance	-9.11329
▁hungry	-9.11579
▁Will	-9.11581
▁Gi	-9.11729
▁far	-9.12056
▁fell	-9.12338
▁స్వయంగా	-9.12349
▁playing	-9.12568
▁ఇష్టపడను	-9.12981
▁చుట్ట	-9.13108
▁మనకు	-9.13379
▁మాట్లాడటానికి	-9.13584
▁movie	-9.13787
▁కథ	-9.13843
▁మొదటి	-9.13954
▁చేస్తుంది	-9.14293
▁లేను	-9.14503
▁వెంటనే	-9.1467
▁చేయాలనుకుంటున్న	-9.14791
▁child	-9.15053
▁living	-9.15054
▁20	-9.1508
▁ate	-9.15198
▁music	-9.1543
▁జుట్టు	-9.15448
▁since	-9.15452
▁చేసింది	-9.15919
▁చేతి	-9.15949
ిన	-9.15978
▁టేబుల్	-9.1624
▁మేమ	-9.16469
▁ten	-9.16511
సార్లు	-9.16593
▁favorite	-9.16639
▁తాగ	-9.1664
▁ఆసక్తి	-9.17037
▁later	-9.17077
▁లేవు	-9.17243
▁వయస్సు	-9.17265
▁పోలీసులు	-9.17455
ాలనుకుంటున్నారు	-9.17801
▁సంవత్సరాలు	-9.17956
▁fire	-9.18127
▁forgot	-9.18248
▁అనిపిస్తుంది	-9.18265
▁చల్లగా	-9.18294
▁2:30	-9.1838
▁తర్వాత	-9.18654
▁స	-9.18666
ర	-9.18887
▁కొడుకు	-9.19063
▁tonight	-9.19064
▁అందరిక	-9.19229
▁గంటలు	-9.19316
▁eyes	-9.19414
▁picture	-9.19423
▁mine	-9.19454
▁accident	-9.19473
▁stupid	-9.19473
వి	-9.19759
▁C	-9.19808
▁exactly	-9.19889
▁సినిమా	-9.20001
▁cat	-9.20009
▁పిల్లి	-9.20298
▁చూస్తున్నాను	-9.20324
▁విషయాలు	-9.20553
▁పుస్తకాలు	-9.2059
▁చివరి	-9.20703
▁కారును	-9.20744
▁వెళ్తాను	-9.20774
▁భావిస్తున్నాను	-9.21553
▁killed	-9.21639
▁finished	-9.2164
▁బయలుదేర	-9.21733
▁Everybody	-9.21967
▁having	-9.21968
▁చేస్తున్నాడు	-9.22278
క్	-9.22293
▁fast	-9.22356
▁bicycle	-9.22389
▁reading	-9.22619
▁బాల్	-9.22676
▁broke	-9.22797
▁nice	-9.22814
▁సోదరి	-9.22856
▁ప్రయత్నించాడు	-9.23296
▁rich	-9.23561
టి	-9.23591
▁Japan	-9.23666
▁once	-9.23723
▁talked	-9.23865
▁రోజ	-9.23932
▁పరీక్ష	-9.23942
▁helped	-9.23982
▁asleep	-9.24095
▁trouble	-9.24095
▁చూడటం	-9.2411
▁felt	-9.24526
▁arrived	-9.24607
▁చూడండి	-9.24633
▁విన	-9.24879
▁interesting	-9.24979
▁వచ్చాను	-9.24993
▁జరుగుతుందో	-9.25026
▁జపాన్	-9.25207
▁small	-9.25367
0	-9.25498
▁చూపించ	-9.25809
▁hospital	-9.2583
▁suspect	-9.2583
▁under	-9.25831
▁story	-9.25831
▁ఉన్నప్పుడు	-9.25844
▁చేసారు	-9.25875
▁కొద్దిగా	-9.25922
▁రాలేదు	-9.25945
▁సైకిల్	-9.26305
ాలు	-9.26346
▁క్షమాపణ	-9.26527
▁become	-9.26716
▁ని	-9.26834
▁un	-9.26902
▁hands	-9.26972
▁caught	-9.27154
▁బయట	-9.27515
▁ఇబ్బంది	-9.27596
▁మధ్య	-9.27597
▁ప్రారంభించ	-9.27988
ాల్సిన	-9.28247
▁ముద్దు	-9.28341
ుంది	-9.28378
▁ప్రేమిస్తున్నాన	-9.28561
▁వెళ్ళడానికి	-9.28578
en	-9.28693
▁ప	-9.28861
▁office	-9.2891
▁town	-9.28945
▁ఇష్టమైన	-9.28974
రని	-9.28995
i	-9.29159
▁die	-9.29354
▁చేశాడ	-9.29588
▁visit	-9.29634
▁summer	-9.29849
▁ఆకలితో	-9.29904
▁hot	-9.30012
▁చెప్పడానికి	-9.3006
▁బస్సు	-9.30131
▁గుర్తు	-9.30304
▁drunk	-9.30306
▁టోపీ	-9.30306
▁homework	-9.3031
▁అభిప్రాయం	-9.30328
▁చేయలేను	-9.30457
మ	-9.30476
▁makes	-9.30512
▁మంచం	-9.30617
▁జీవిత	-9.3062
▁liked	-9.30641
▁తెరిచి	-9.30764
▁fun	-9.30765
▁అమ్మాయి	-9.30788
▁అనుకున్నాడు	-9.30809
▁అ	-9.3111
▁చెడ్డ	-9.31111
▁పాట	-9.31191
▁టీ	-9.31314
▁ప్రారంభించాడు	-9.31347
▁thinks	-9.31648
▁hat	-9.31667
▁దూరం	-9.3189
▁park	-9.31937
గల	-9.3214
▁ఒకే	-9.32211
▁తల్లిదండ్రులు	-9.32259
▁చెప్పాలి	-9.32264
▁దుస్తులు	-9.32347
▁eating	-9.32577
▁ఉంటే	-9.3262
▁ఉన్నట్లు	-9.3266
▁లోపలి	-9.32796
▁safe	-9.33034
▁breakfast	-9.3309
▁Just	-9.33091
▁వైన్	-9.33094
▁met	-9.33116
▁dollars	-9.33179
▁word	-9.332
▁మీరే	-9.33252
▁ప్రశ్నలు	-9.33492
▁paid	-9.33562
▁గొప్ప	-9.33666
▁wine	-9.33719
లేను	-9.33976
▁పాడ	-9.34243
▁works	-9.34341
▁చేస్తాడ	-9.34396
▁October	-9.34512
▁అక్టోబర్	-9.34512
▁బరువు	-9.34512
▁enjoy	-9.34512
▁అల్పాహారం	-9.34514
▁స్పష్టంగా	-9.34591
▁చెప్పడం	-9.34604
▁ఒకరిన	-9.34629
▁run	-9.34867
▁near	-9.34984
▁wrote	-9.34998
▁టెన్	-9.35012
▁daughter	-9.35067
▁kept	-9.35471
▁box	-9.35493
▁ఉంచండి	-9.35511
కండి	-9.35538
▁కిటికీ	-9.35589
నిస్	-9.35689
్లో	-9.35716
స	-9.35773
▁పరిష్కరించ	-9.35838
▁కారులో	-9.3593
▁country	-9.35956
▁weather	-9.35974
▁మరణించాడు	-9.36027
▁spend	-9.36044
▁కుమార్తె	-9.36378
▁ఎదురు	-9.36442
▁free	-9.3646
▁lose	-9.3648
▁చేస్తాన	-9.36824
▁tennis	-9.36927
▁number	-9.36929
▁రోజులు	-9.36941
▁స్నేహితుడు	-9.36964
b	-9.37022
▁తీసుకున్నాడు	-9.37444
▁shoes	-9.37515
▁tree	-9.37529
▁అనుకోలేదు	-9.37574
▁expect	-9.37696
▁అడిగాను	-9.37914
▁నివసించ	-9.38172
ందుకు	-9.38365
▁2013	-9.38405
▁ధూమపానం	-9.38407
▁month	-9.38529
▁ఖర్చు	-9.38624
▁ఉంచ	-9.38924
▁కోపంగా	-9.3915
▁woman	-9.39403
▁ఇష్టపడడు	-9.39448
▁చెల్లించ	-9.39467
▁sit	-9.39587
▁explain	-9.39783
▁మొదట	-9.39795
▁strange	-9.39888
▁born	-9.39905
▁planning	-9.39906
▁వెళ్ళాలి	-9.39951
▁బూట్లు	-9.39988
▁older	-9.40011
▁కారణం	-9.40024
▁చేసుకున్నాడు	-9.40059
▁dead	-9.40409
▁అప్పటిక	-9.40492
▁song	-9.40589
పు	-9.40629
▁చంప	-9.40872
▁face	-9.40982
▁hour	-9.41071
▁ran	-9.41105
▁ఏమిట	-9.41319
▁చెట్టు	-9.41428
▁కాల్	-9.4178
▁తల్లిదండ్రుల	-9.41825
▁చదవ	-9.41908
▁మధ్యాహ్నం	-9.41941
▁clothes	-9.41941
▁close	-9.42016
▁hit	-9.42148
▁సోదరుడు	-9.42167
▁red	-9.42244
▁mean	-9.42271
▁listen	-9.42399
▁became	-9.42456
u	-9.42465
▁అవుతుంది	-9.42487
▁తమ	-9.42526
▁age	-9.4268
▁వెనుక	-9.42919
▁తీవ్రంగా	-9.42984
▁ఆట	-9.43159
▁చేయను	-9.43197
లేడని	-9.43458
▁భర్త	-9.43495
▁మొత్తం	-9.43495
▁those	-9.43499
▁five	-9.43563
▁miss	-9.436
▁expected	-9.43624
▁promised	-9.43628
▁సరి	-9.43641
▁secret	-9.43659
▁problems	-9.43711
ar	-9.43777
turned	-9.43871
hich	-9.44018
▁ఆలోచించ	-9.44035
▁reason	-9.44171
▁వాతావరణం	-9.44315
▁సంవత్సరాల	-9.44451
▁కొట్ట	-9.44461
▁కోరుకుంటాడు	-9.44547
▁tea	-9.44689
▁watching	-9.4472
నుకోవడం	-9.44753
▁rest	-9.44791
▁worry	-9.4498
▁loves	-9.44984
▁expensive	-9.45074
▁ప్లాన	-9.452
▁ఉపయోగించ	-9.45204
గ్గా	-9.45224
▁సందర్శించ	-9.45355
▁cut	-9.45361
▁కొన్నిసార్లు	-9.45646
▁వచ్చారు	-9.45675
▁న	-9.45682
వంటి	-9.46006
▁kids	-9.46021
▁జీవితం	-9.46067
▁కప్పు	-9.461
▁sat	-9.46266
▁ఉండవచ్చు	-9.46298
▁cost	-9.46348
▁అమ్మ	-9.46389
▁ఇతర	-9.46488
లకు	-9.46623
▁మరొక	-9.46669
▁choice	-9.46679
▁ప్రస్తుతం	-9.46688
▁scared	-9.4673
▁నచ్చలేదు	-9.46866
ప	-9.46876
▁game	-9.46885
▁ఉత్తమ	-9.46986
▁కుటుంబం	-9.47116
▁worried	-9.47219
▁outside	-9.4723
▁ధర	-9.47281
▁M	-9.47484
ట	-9.47503
▁పది	-9.47529
▁ఖాళీ	-9.47763
▁బహుమతి	-9.47763
▁ముగ్గుర	-9.47763
ినట్లు	-9.47953
▁milk	-9.48309
▁ఫిర్యాదు	-9.48309
▁class	-9.48312
▁కొన్నాను	-9.48343
లేరు	-9.48569
▁Her	-9.48713
▁finish	-9.48737
▁umbrella	-9.48859
▁station	-9.48862
▁stopped	-9.48863
▁సంగీతం	-9.48922
▁lie	-9.48927
▁kill	-9.49117
▁team	-9.49155
▁through	-9.49411
▁గొడుగు	-9.49411
▁స్టేషన్	-9.49411
▁city	-9.49412
▁కూర్చున్నాడు	-9.4943
▁బట్టల	-9.49471
▁ఎవరిన	-9.49526
▁హ	-9.49667
▁అనుకుంటున్నారు	-9.49994
▁చిత్ర	-9.50089
▁అలవాటు	-9.50205
▁ఇక్కడే	-9.50303
▁రక్షించ	-9.50305
▁light	-9.5032
▁fish	-9.50435
▁cry	-9.50439
▁dark	-9.50525
▁తెలియదని	-9.50527
▁point	-9.50554
▁చూశారా	-9.50567
సేపు	-9.5061
చ్	-9.50817
▁changed	-9.5084
▁వస్తాడు	-9.51059
▁brought	-9.51087
▁everybody	-9.51087
▁పుట్టినరోజు	-9.51087
▁birthday	-9.51087
▁girlfriend	-9.51112
▁speaks	-9.51245
▁కీ	-9.51572
▁కేవలం	-9.51652
▁F	-9.51678
taking	-9.51736
▁పాలు	-9.51809
▁నివసిస్తున్నాడు	-9.51852
▁news	-9.52039
▁whe	-9.5217
▁possible	-9.5222
▁మరో	-9.52222
▁lying	-9.52225
ble	-9.52238
▁సమయానికి	-9.52266
▁నువ్వు	-9.52276
▁సురక్షితం	-9.52398
▁క	-9.52443
▁snow	-9.52571
or	-9.52736
▁వేరే	-9.52792
▁ఎంతకాలం	-9.52802
▁quickly	-9.52806
▁key	-9.53071
వు	-9.53229
▁high	-9.53276
▁Japanese	-9.53366
▁comes	-9.53557
▁goes	-9.53606
▁different	-9.5388
▁పరిస్థితి	-9.53944
▁Take	-9.53952
▁లాగా	-9.54052
▁studying	-9.54117
▁thinking	-9.54149
మా	-9.54204
▁part	-9.54281
▁గా	-9.54288
▁2:30.	-9.54337
▁ra	-9.54399
▁విశ్రాంతి	-9.54526
▁upset	-9.54529
▁కళ్ళు	-9.54684
▁decision	-9.54807
▁worked	-9.54891
డ్	-9.54924
▁చేయగలరా	-9.55187
▁wear	-9.55445
▁అనే	-9.55458
▁కంప్యూటర్	-9.55488
▁పార్క	-9.55498
▁E	-9.55525
▁death	-9.55699
▁proud	-9.55699
▁వెళ్ళడం	-9.55746
▁closed	-9.55882
▁cup	-9.56
▁spent	-9.56291
▁అనిపించింది	-9.56337
."	-9.56493
▁cook	-9.56665
▁baby	-9.56886
▁final	-9.56887
▁చేస్తున్నార	-9.56888
▁అలాంటి	-9.56928
▁అరుదుగా	-9.56933
▁వెళ్ళ	-9.57015
▁end	-9.57167
ంటి	-9.57169
▁తెలుస	-9.57209
▁పోలీసుల	-9.57484
▁shirt	-9.57605
▁రావాల	-9.57779
▁careful	-9.5803
▁advice	-9.58087
▁చేయవలసిన	-9.58127
▁వెళ్లి	-9.58589
▁Look	-9.58695
▁ఇచ్చారు	-9.58796
▁చూసి	-9.58833
▁చెప్పాడ	-9.58848
▁చేయలేదని	-9.58874
నీ	-9.58923
లేకపోయాడు	-9.59061
ాలనుకున్నాడు	-9.59073
▁ఆరు	-9.5929
▁Was	-9.59303
▁చొక్కా	-9.59303
▁భయపడుతున్నాను	-9.59324
ద	-9.59358
▁పుస్తక	-9.59396
▁ఉంటారు	-9.59611
▁head	-9.59842
▁అద్భుతమైన	-9.59881
▁dangerous	-9.59918
▁చేసాము	-9.59931
▁కోల్పోయాడు	-9.5994
▁డ్రైవ్	-9.5997
▁వెళ్ళాను	-9.59977
▁వెళ్ళలేదు	-9.60015
▁beer	-9.60026
▁flowers	-9.60174
▁loved	-9.60187
le	-9.60196
▁అడగ	-9.60356
▁apologize	-9.60373
▁చేయాల్సి	-9.60525
▁హోటల్	-9.60534
▁అధ్యయనం	-9.60545
▁whole	-9.60597
▁గంట	-9.6061
▁crying	-9.60635
ినప్పుడు	-9.60649
▁computer	-9.60892
▁ఒకరి	-9.60983
▁ఎట	-9.61026
▁ఉంటాయి	-9.61155
▁six	-9.61156
▁మాంసం	-9.61164
▁చేసే	-9.61166
▁building	-9.61171
▁against	-9.61328
▁వస్తాడ	-9.61554
▁stayed	-9.61721
▁making	-9.6178
▁Bo	-9.61901
▁promise	-9.61992
▁evening	-9.62093
▁serious	-9.62346
▁సాయంత్రం	-9.62409
▁river	-9.62409
▁Some	-9.6241
▁husband	-9.62424
▁రెస్టారెంట్	-9.62452
▁చేయవద్దు	-9.62501
ినందుకు	-9.6271
▁opened	-9.62717
▁likely	-9.62806
▁Go	-9.62942
▁పిచ్చి	-9.63012
▁situation	-9.63041
▁రకమైన	-9.63041
▁అనుమానం	-9.6305
▁పనికి	-9.63103
▁కోల్పోయాను	-9.63104
▁సమస్యల	-9.63141
▁ఉంటాడ	-9.63145
▁స్థలం	-9.63189
▁కింద	-9.63282
▁వ్యక్తిని	-9.63425
▁చెంద	-9.6346
▁plans	-9.63556
▁ఆప	-9.63654
▁చేయగలను	-9.63723
▁పై	-9.63887
▁డాలర్లు	-9.63953
▁students	-9.64261
▁పెళ్లి	-9.6432
▁రండి	-9.64337
▁Now	-9.64339
▁చదవడం	-9.64382
▁మార్చ	-9.64454
డ	-9.64563
▁catch	-9.64709
▁began	-9.64965
▁కృత	-9.64965
▁saying	-9.64966
▁hotel	-9.64969
▁ఉద్యోగ	-9.65039
▁restaurant	-9.65377
▁ధరించ	-9.65535
▁afternoon	-9.65614
▁leaving	-9.65614
▁చెడు	-9.65624
యి	-9.65642
est	-9.65767
▁walked	-9.65884
▁అనుమతించ	-9.65922
▁Be	-9.66087
▁ఎత్తు	-9.66127
▁భయపడ	-9.66178
▁పడ	-9.66223
▁floor	-9.66268
▁lawyer	-9.66268
▁పాఠశాలలో	-9.66341
▁ఉన్నాయా	-9.66392
▁showed	-9.66511
వలసిన	-9.66525
ె	-9.66552
▁dress	-9.66792
▁move	-9.66808
▁break	-9.66855
రోజ	-9.66915
▁చెప్పాల	-9.67022
h	-9.67328
▁మనిషి	-9.67336
g	-9.67362
▁language	-9.67378
▁సరైన	-9.67519
▁అవి	-9.67568
▁medicine	-9.67588
▁కోరాడు	-9.67615
▁p	-9.67622
▁కనుగొన	-9.67796
▁ద	-9.6786
▁పెట్ట	-9.6787
▁dream	-9.67946
▁kiss	-9.6804
▁guitar	-9.68251
▁స్నేహితురాలు	-9.68257
▁coat	-9.6826
▁సంబంధం	-9.68267
▁పడుతుంది	-9.68274
▁ఇచ్చాను	-9.6832
▁రంగు	-9.68461
▁అంగీకరించ	-9.68785
"	-9.68819
▁large	-9.68879
▁business	-9.68923
▁black	-9.68925
▁paper	-9.68926
▁along	-9.68926
▁refused	-9.68988
▁sometimes	-9.69082
▁భాష	-9.69184
▁కలవ	-9.69199
▁కలత	-9.69204
▁నిమిషాలు	-9.69218
▁ఉన్నారో	-9.6939
▁శుభ్రం	-9.69416
ter	-9.69563
▁full	-9.69572
▁వ	-9.69588
▁Everything	-9.69601
▁Stop	-9.69601
▁చేయకూడద	-9.69697
▁strong	-9.70276
▁white	-9.70282
▁దృష్టి	-9.70282
▁behind	-9.70282
▁అరెస్టు	-9.70316
▁g	-9.70529
▁present	-9.70767
▁ఆశ	-9.70908
▁బోస్టన్లో	-9.70947
▁గిటార్	-9.70969
▁వస్తుంది	-9.71
▁driver	-9.7101
▁గడియారం	-9.71025
▁కోటు	-9.71172
▁చేతులు	-9.71196
ాలో	-9.71209
▁ఎంపిక	-9.71433
▁touch	-9.71466
వలసి	-9.71569
ణ	-9.71577
▁జపనీస్	-9.71656
▁store	-9.71656
▁సూట్	-9.71662
▁pain	-9.71669
▁supposed	-9.71695
▁interested	-9.71698
eep	-9.71789
▁moved	-9.71824
రి	-9.71946
కూడదు	-9.72012
▁కోపం	-9.72045
▁ఇంటిని	-9.72077
▁dance	-9.72171
▁Christmas	-9.72351
▁front	-9.72351
▁half	-9.72351
▁క్రిస్మస్	-9.72351
▁స్థితి	-9.72351
▁bring	-9.72354
▁list	-9.72522
▁ఒకరు	-9.72532
▁చేయవచ్చు	-9.72625
ాడని	-9.72704
▁keys	-9.72709
▁order	-9.72745
▁ఉంటుంద	-9.72781
▁Pu	-9.72862
in	-9.73014
▁feeling	-9.73193
▁డబ్బును	-9.73434
ప్పుడు	-9.73556
▁స్నేహితుల	-9.73578
▁ఇక్కడి	-9.73738
▁crazy	-9.73754
▁లేదో	-9.73755
▁swimming	-9.73756
▁Come	-9.73757
▁తప్పక	-9.7379
▁టై	-9.74155
▁short	-9.74369
▁glass	-9.74452
▁company	-9.74463
▁fault	-9.74463
▁నొప్పి	-9.74463
▁trip	-9.74482
▁sitting	-9.74498
▁ప్రయత్నించండి	-9.74501
▁30	-9.74532
▁దేని	-9.74726
▁వస్తాను	-9.74833
▁waited	-9.75009
▁garden	-9.75102
▁sent	-9.75178
▁బాగుంది	-9.75182
▁smoking	-9.7519
between	-9.75193
▁ఏది	-9.75209
▁చివరకు	-9.75214
▁broken	-9.75237
▁చేయబడింది	-9.75243
▁advise	-9.75468
టం	-9.75685
▁అస్	-9.75838
వచ్చా	-9.75847
▁piano	-9.75897
▁street	-9.75897
▁కొంతమంది	-9.75897
▁చేద్దాం	-9.75897
▁పియానో	-9.75897
▁shot	-9.75897
▁Someone	-9.75898
▁ఏమనుకుంటున్నార	-9.75899
▁శబ్దం	-9.7591
▁eaten	-9.75964
తలు	-9.76077
▁ఉంద	-9.76086
▁spoke	-9.76178
▁fired	-9.76183
▁మహిళ	-9.7639
▁విధంగా	-9.76563
▁lucky	-9.76635
▁younger	-9.76685
▁చెప్పింది	-9.7678
▁fix	-9.77133
▁చూడాల	-9.77137
▁stand	-9.77259
▁నిర్ణయం	-9.774
▁ప్రపంచంలో	-9.77422
▁inside	-9.77422
సలు	-9.77433
▁విచ్	-9.77839
▁mistakes	-9.77848
▁months	-9.77904
▁doubt	-9.77944
▁Get	-9.78087
▁చివరిసారి	-9.78088
▁Has	-9.78246
▁ముఖ్యం	-9.7825
▁తీయ	-9.78306
▁happening	-9.78465
ation	-9.78483
▁అవసరమ	-9.78572
▁బలం	-9.78646
▁teach	-9.78697
▁guy	-9.787
▁నడవ	-9.78715
▁మూడేళ్ల	-9.78797
▁ఇలా	-9.78819
పట్ల	-9.78828
▁పనుల	-9.78889
▁నచ్చిందా	-9.78901
▁thank	-9.7899
▁usual	-9.79131
▁రాయ	-9.79151
▁Canadian	-9.79439
బడింది	-9.79465
వా	-9.79477
▁చూసిన	-9.79508
▁ఆసక్తికరంగా	-9.79574
▁మరల	-9.79575
▁anywhere	-9.79575
▁ఒక్క	-9.79579
▁ముంద	-9.79587
▁చెప్పగలరా	-9.79614
▁o	-9.79631
▁ice	-9.79761
▁పెద్దది	-9.79791
▁weight	-9.79798
▁చర్చించ	-9.79803
▁వార	-9.79836
ne	-9.7995
▁played	-9.80161
▁weekend	-9.80194
not	-9.80274
▁tall	-9.80293
▁either	-9.80326
▁recognize	-9.80326
▁report	-9.80326
▁road	-9.80326
▁blue	-9.80326
▁test	-9.80343
ంచి	-9.80696
▁వివరించ	-9.80808
▁clean	-9.80867
▁sell	-9.80868
▁జోక్	-9.81083
▁bank	-9.81083
▁చెప్పినది	-9.81132
▁D	-9.81192
▁listening	-9.81219
▁రా	-9.81226
▁sleeping	-9.81332
యా	-9.81391
▁చేసి	-9.81396
▁సాధించ	-9.81576
▁fine	-9.81683
▁pass	-9.8169
గ	-9.8178
▁కెనడియన్	-9.81785
▁సమయ	-9.81798
▁లాక్	-9.81847
▁బాస్	-9.81857
▁స్నానం	-9.81862
▁మాట్లాడాలి	-9.82009
▁gets	-9.82104
▁పిలవ	-9.82302
▁చేయగలడ	-9.8231
గలను	-9.82355
▁return	-9.82494
▁real	-9.8257
aught	-9.82612
▁కత్తి	-9.82616
▁cake	-9.82617
▁poor	-9.82618
▁ఇచ్చింది	-9.82618
▁arrested	-9.82641
▁వెళ్లడం	-9.82762
▁missed	-9.8282
ic	-9.82831
▁ఇష్టపడతారు	-9.82892
▁జరిగింద	-9.8324
▁heart	-9.83242
▁జీవించ	-9.83281
▁చేశాన	-9.83383
▁కెమెరా	-9.83391
▁భూమి	-9.83391
▁camera	-9.83413
▁విజయం	-9.83434
▁చేయగలన	-9.83494
▁ఉండమ	-9.83521
చ	-9.8357
▁ఉంచాడు	-9.83579
▁rules	-9.83757
▁ప్రయత్నించ	-9.83937
▁attention	-9.84172
▁air	-9.84237
▁వెళ్తాడు	-9.84274
మ్	-9.84334
▁meat	-9.84433
▁ఆపిల్	-9.84444
బ	-9.84474
▁భాషలో	-9.84575
▁blame	-9.8481
▁B	-9.84856
▁plane	-9.84889
▁మ	-9.84909
▁also	-9.8496
▁kitchen	-9.8496
▁library	-9.8496
▁కచేరీ	-9.8496
▁ఆడటం	-9.84974
▁తీసుకోండి	-9.84989
▁As	-9.84994
▁invited	-9.8503
▁ధరించాడు	-9.85083
▁వేసవిలో	-9.85101
▁agreed	-9.85374
▁నమ్మ	-9.85432
▁కాల్చ	-9.85512
▁సమావేశం	-9.85661
▁mad	-9.85707
eople	-9.85747
▁hurry	-9.85753
▁opinion	-9.85753
▁glasses	-9.85767
▁భయపడ్డాడు	-9.85915
▁Here	-9.85948
▁పెట్టె	-9.86327
▁చేయడు	-9.86327
▁happens	-9.86411
▁weeks	-9.86474
▁sad	-9.86536
▁written	-9.86553
▁నెమ్మదిగా	-9.86553
▁బేస్	-9.86553
▁నడక	-9.86557
▁Many	-9.86558
▁చూస్తాను	-9.86673
▁war	-9.86893
ానని	-9.86989
▁bag	-9.87281
▁women	-9.8736
▁deal	-9.87372
ring	-9.87406
▁One	-9.87416
▁చేస్తాము	-9.8743
▁మర్చిపోయాను	-9.8744
▁beach	-9.87491
▁అనిపించ	-9.8752
▁నది	-9.87846
▁ఏక	-9.87847
▁least	-9.88173
▁భారీ	-9.88173
▁సరదా	-9.88173
▁కనిపిస్తాడు	-9.88193
▁ప్రయత్నించాను	-9.88219
▁చూపించాడు	-9.88341
▁చెప్పిన	-9.88372
▁సెలవు	-9.88626
▁ఆశ్చర్యం	-9.88627
ever	-9.88641
▁వదిలి	-9.88697
ంటే	-9.88718
▁ఆసుపత్రి	-9.88811
▁boss	-9.88993
▁concert	-9.88993
▁famous	-9.88993
▁టికెట్	-9.88993
▁నంబర్	-9.88993
▁వచ్చాయి	-9.89002
▁తీసుకోవాలి	-9.89045
బోతున్నాను	-9.89135
ధ	-9.89168
▁ship	-9.89277
▁du	-9.89296
▁ఒప్పించ	-9.89451
నివ్వండి	-9.89597
▁re	-9.89688
▁ticket	-9.89775
▁couple	-9.89819
▁knife	-9.89819
▁moment	-9.8982
▁alive	-9.8982
▁Thanks	-9.89846
▁కోరుకోలేదు	-9.89872
▁పట్టింది	-9.89875
▁పువ్వులు	-9.90022
ైక	-9.90157
వాడు	-9.90166
▁కావాలా	-9.90398
ir	-9.90401
▁వె	-9.90547
▁ఆనందం	-9.9061
▁completely	-9.90674
▁చేసుకున్నాను	-9.90718
▁అడిగారు	-9.90775
ri	-9.90844
▁అనుమతి	-9.91353
▁తెలిసిన	-9.91392
▁message	-9.91448
▁Thank	-9.91465
▁twice	-9.91493
▁అంగీకరిస్తున్నా	-9.91493
▁బీచ్	-9.91493
▁చిన్నవాడు	-9.91525
▁ఒకసారి	-9.9153
▁కనుగొన్నాడు	-9.91548
▁పైకి	-9.91836
▁మార	-9.91975
ోంది	-9.92023
▁wash	-9.92055
▁పట్ట	-9.92115
▁కల	-9.92135
▁ఆరోగ్యం	-9.92332
▁hundred	-9.9234
▁అత్య	-9.92341
▁Even	-9.92341
▁worth	-9.92344
▁send	-9.92344
▁కావచ్చు	-9.92351
▁Try	-9.92357
▁actually	-9.92451
▁passed	-9.92475
లలో	-9.92578
▁చూస్తున్నారు	-9.9267
▁చేపలు	-9.92701
▁sun	-9.92777
▁పక్కన	-9.92833
▁asking	-9.92893
▁డ్రైవ	-9.92992
▁speaking	-9.93
▁arrive	-9.93035
▁మిగిలి	-9.93042
▁పుస్తకాల	-9.93168
▁apple	-9.93182
▁uncle	-9.93187
▁writing	-9.93195
▁భిన్నంగా	-9.93195
▁నిరాకరించాడు	-9.93223
ాలనుకుంటున్నాడు	-9.93488
▁drinking	-9.93517
▁దాచ	-9.9366
w	-9.93707
▁వి	-9.93881
▁ఆర్డర్	-9.94057
▁desk	-9.9406
▁వచ్చినప్పుడు	-9.94063
▁చేయవద్దని	-9.94081
▁చిన్నది	-9.94191
▁తినడం	-9.94237
▁చెప్పారా	-9.94275
ాల	-9.94312
an	-9.94435
▁వెళ్లడానికి	-9.94449
▁ఆహార	-9.94808
▁tie	-9.94814
▁fight	-9.94835
▁నెల	-9.94899
▁dictionary	-9.94926
▁prefer	-9.94926
▁sever	-9.94994
▁జరుగుతుంది	-9.95008
▁pictures	-9.95032
▁చేయాల్సిన	-9.95033
it	-9.95178
on	-9.95231
▁చేస్తున్నాడ	-9.95352
▁చేయి	-9.95414
లేడు	-9.95435
▁ప్రయాణించ	-9.95458
▁తదుపరి	-9.95803
▁bread	-9.95804
▁డెస్క్	-9.95804
▁baseball	-9.95804
k	-9.95858
▁సమావేశ	-9.95878
▁kissed	-9.95964
▁చెందాడు	-9.95985
ఫోన్	-9.96015
▁నమ్మలే	-9.96104
▁కా	-9.96143
▁మర్చిపోవద్ద	-9.96272
▁ఇష్టపడ	-9.96315
▁డేట	-9.9646
శ	-9.96478
ించ	-9.96562
▁others	-9.96679
▁తనిఖీ	-9.96689
▁voice	-9.96689
▁running	-9.96689
▁which	-9.96691
▁taken	-9.96705
▁రోజుల్లో	-9.96745
ష	-9.96765
ున్నాడు	-9.96836
▁బయలుదేరాడు	-9.96877
▁bother	-9.96944
▁బస్సులో	-9.97042
▁జీవితంలో	-9.97046
▁గాలి	-9.97199
ారని	-9.97416
▁seat	-9.97429
▁future	-9.97581
▁కేక్	-9.976
▁కనుగొన్నాను	-9.97611
▁ఇష్టపడతాను	-9.9768
▁గుర్తులేదు	-9.97684
▁noticed	-9.97745
▁అవున	-9.97904
ుతోంది	-9.9803
▁చేసుకోవాల	-9.98182
▁గట్టి	-9.98211
▁clear	-9.98295
▁date	-9.9832
▁pretend	-9.98388
లాగే	-9.98393
▁ఇవ	-9.98445
▁prison	-9.98452
▁figure	-9.98482
▁join	-9.98482
▁terrible	-9.98482
▁పిలిచాడు	-9.98529
▁నిశ్శబ్దంగా	-9.98558
▁పాస్	-9.98697
▁పొంద	-9.98922
ష్	-9.98933
▁regret	-9.99115
▁sign	-9.99256
▁రావ	-9.99272
▁చేసినందు	-9.99316
▁Tokyo	-9.99391
▁వంతు	-9.99392
▁నిజమైన	-9.99392
▁చూద్దాం	-9.99394
▁ఉండటం	-9.99413
▁చెప్పేది	-9.99432
▁అడగండి	-9.99454
▁వినలేదు	-9.99594
▁అందుక	-9.99596
▁కొన్నారు	-9.99628
▁owe	-9.9964
డని	-9.99655
▁జట్టు	-10.0009
▁borrow	-10.0019
▁Something	-10.0031
▁sense	-10.0031
▁తీసుకుంటాను	-10.0037
▁సరైనది	-10.0037
▁ఇవ్వలేదు	-10.004
▁తెలుసుకోవాలి	-10.0048
డి	-10.0051
నుకుంటున్నాను	-10.0063
▁ఓడ	-10.0063
ుతుంది	-10.0071
▁stole	-10.0079
▁సాధారణ	-10.0107
▁surprise	-10.0108
▁somebody	-10.0123
▁గొంతు	-10.0123
▁wonderful	-10.0124
▁noise	-10.0125
▁ఏమైనా	-10.0125
ion	-10.0126
lo	-10.0127
▁తిన్నాడు	-10.013
▁అయ్యాడు	-10.0138
ారో	-10.0148
▁నివసిస్తున్నారు	-10.0149
▁learned	-10.016
▁travel	-10.0195
▁కనిపిస్తోంది	-10.0217
ికీ	-10.0224
▁రావడం	-10.0226
▁తెరవ	-10.0234
దని	-10.0244
▁తెలుసుకోవాల	-10.0251
▁girls	-10.0262
▁జ	-10.0281
ాన్	-10.0283
▁four	-10.0286
▁laugh	-10.0295
▁count	-10.0302
నవసరం	-10.031
▁empty	-10.0311
▁second	-10.0311
▁వృధా	-10.0311
▁వెళ్దాం	-10.0311
▁wake	-10.0311
▁చేయలేరు	-10.033
ులు	-10.0333
▁అనుకున్న	-10.0336
▁known	-10.0359
▁నిద్ర	-10.036
▁dogs	-10.0366
▁అబ్బాయి	-10.0377
▁పంప	-10.0382
▁విమానం	-10.0385
▁రుచి	-10.0406
▁బ్యాగ్	-10.0407
▁necessary	-10.0407
▁wedding	-10.0408
▁భావిస్తాడు	-10.0408
▁apartment	-10.041
▁price	-10.0414
less	-10.0414
▁student	-10.0415
▁fishing	-10.0422
▁visited	-10.0432
▁save	-10.0487
▁church	-10.0503
▁seldom	-10.0503
▁కనీసం	-10.0503
▁అబద్దం	-10.0504
▁నల్ల	-10.0506
▁మాట్లాడలేదు	-10.0522
▁men	-10.0525
▁గ	-10.0534
▁ప్రజల	-10.0537
▁హించలేద	-10.0557
▁వింత	-10.0567
▁విషయాల	-10.057
యం	-10.0586
▁takes	-10.0589
లోకి	-10.0593
▁address	-10.06
▁రేడియో	-10.06
▁విసుగు	-10.06
▁drank	-10.06
▁నాలుగు	-10.06
▁పనిచేయడం	-10.0604
▁hide	-10.0604
▁అడగలేదు	-10.0608
▁వెళ్తున్నాను	-10.0615
▁విదేశాల	-10.0616
▁కలిశాను	-10.0617
▁హించ	-10.0626
▁pen	-10.0643
▁మాట్లాడుతున్నార	-10.0657
పో	-10.0661
దా	-10.0683
▁అన్నార	-10.0689
▁L	-10.0689
▁afford	-10.0698
▁radio	-10.0698
▁sentence	-10.0698
▁Nothing	-10.0698
▁బీరు	-10.0698
▁funny	-10.0698
▁somewhere	-10.0698
▁వల్ల	-10.0701
▁winter	-10.0701
▁set	-10.0702
▁horse	-10.0709
ate	-10.0711
▁వెళ్లారు	-10.0715
▁minute	-10.0716
▁ముఖం	-10.0731
▁ఇతరుల	-10.0733
▁సరే	-10.0751
▁means	-10.0766
▁solve	-10.0781
▁guess	-10.0784
▁quiet	-10.079
▁health	-10.0794
▁Jackson	-10.0797
▁marry	-10.0797
▁nervous	-10.0797
▁slept	-10.0797
▁పిల్లవాడు	-10.0797
▁past	-10.0797
▁shut	-10.0797
▁ముగిసింది	-10.0799
▁వారాంతంలో	-10.0799
▁disappointed	-10.0801
▁offer	-10.0808
▁joke	-10.0809
▁కలలు	-10.0812
▁కనుగొన్నారు	-10.0813
▁ప్రశ్నల	-10.0813
టో	-10.0815
▁side	-10.0822
పడి	-10.0828
▁ఇచ్చిన	-10.0835
్ర	-10.0842
▁స్థానం	-10.0844
▁లోపల	-10.0859
▁less	-10.0867
ra	-10.0874
▁ఓటు	-10.0897
▁taxi	-10.0897
▁సమాచారం	-10.0899
▁విధానం	-10.0899
▁పనిచేస్తాడు	-10.0901
▁bottle	-10.0909
▁laughed	-10.091
▁hop	-10.091
▁eye	-10.0911
▁చేస్తార	-10.0913
జ	-10.0914
▁డ్రైవర్	-10.0915
▁ఇంకేమ	-10.0916
▁చేసుకున్నారు	-10.0927
▁క్షమించ	-10.0938
▁ముందుగా	-10.0954
స్త	-10.0977
▁తరగతి	-10.098
▁వేసవి	-10.098
▁notice	-10.0989
▁perfect	-10.0992
▁airport	-10.0998
▁నివేదిక	-10.0998
▁రొట్టె	-10.0998
▁Today	-10.0998
▁ఫన్నీ	-10.0999
▁భయంకరమైన	-10.1
▁st	-10.1001
▁అలసిపోయాను	-10.1003
▁2	-10.1004
▁smoke	-10.1009
వారు	-10.1013
ut	-10.1031
clock	-10.1032
▁b	-10.1032
▁నవ్వ	-10.1034
▁తగ్గ	-10.1047
▁To	-10.1068
▁చేయగలడు	-10.1082
▁వెళ్ళను	-10.1085
▁danger	-10.11
▁vacation	-10.11
▁ఇదంతా	-10.11
▁బిడ్డ	-10.11
▁శిశువు	-10.11
▁ప్రసిద్ధ	-10.11
▁information	-10.11
▁వీలైనంత	-10.1101
▁వెళ్ళమ	-10.1106
▁gift	-10.1114
▁ఆసుపత్రిలో	-10.1123
▁చీకటి	-10.1132
▁చూప	-10.1136
ies	-10.1155
rew	-10.1173
▁దాట	-10.1177
▁సంగీత	-10.1191
▁abroad	-10.1203
▁హత్య	-10.1203
▁మోసం	-10.1204
▁helping	-10.1212
▁బాధ	-10.1216
▁సాక	-10.1246
▁వచ్చిన	-10.1248
ైన	-10.1248
▁పైగా	-10.126
▁నమ్మను	-10.127
▁words	-10.1291
▁భోజన	-10.1295
▁టెలి	-10.1307
▁విడాకుల	-10.1307
▁సంతోషిస్తున్నా	-10.1307
▁బాధ్యత	-10.1307
▁చిత్రం	-10.1307
▁worse	-10.1308
▁పాడటం	-10.1308
▁కోరుకున్నాడు	-10.131
▁allowed	-10.132
▁న్యాయవాది	-10.1332
▁డాన్స	-10.1333
ద్వేషిస్తున్నాను	-10.1338
ిని	-10.1391
▁నిలబడి	-10.1399
▁leg	-10.1405
▁waste	-10.1406
▁ride	-10.1407
లేము	-10.141
▁taste	-10.1412
▁ఆదివారం	-10.1412
▁ఎడమ	-10.1412
▁తుపాకీ	-10.1412
▁మురికి	-10.1412
▁సంస్థ	-10.1412
▁పరిచయ	-10.1412
▁సంతకం	-10.1413
▁స్వంత	-10.1413
▁ఖరీదైనది	-10.1416
▁భావించాడు	-10.1418
▁laughing	-10.1423
ాలను	-10.1431
▁విద్యార్థులు	-10.1452
▁అయిపోయ	-10.146
▁నీ	-10.1462
▁stolen	-10.1463
వరకు	-10.1465
▁నేర్చుకోవ	-10.1479
▁ఇద్దరు	-10.1487
▁ప్రణాళికల	-10.1491
త్	-10.1494
ాడో	-10.1497
ంటువు	-10.15
▁pick	-10.1505
పెట్టాడు	-10.1509
▁నిండి	-10.1512
▁driving	-10.1519
▁ఇటీవల	-10.1519
▁చిరునామా	-10.1519
▁వాసన	-10.1519
▁అగ్ని	-10.1519
▁మామయ్య	-10.1519
▁నిమిషం	-10.1519
▁వెళ్ళే	-10.1521
▁చెప్పినట్లు	-10.1524
▁నేల	-10.1528
▁gun	-10.1529
గు	-10.1539
▁exam	-10.1544
▁lied	-10.1553
ెడ్	-10.156
▁ఎవరితో	-10.1562
▁eats	-10.1579
▁yours	-10.1587
▁తీస	-10.1591
▁జరుగుతుంద	-10.16
▁correct	-10.1607
▁జైలు	-10.1608
▁గుర్తించ	-10.1623
▁easily	-10.1626
▁immediately	-10.1627
▁కేస్	-10.1627
▁Were	-10.1636
▁పనిలో	-10.1639
▁smiled	-10.1641
▁de	-10.1642
▁dressed	-10.1646
▁movies	-10.1653
▁తెలివితక్కువ	-10.1653
▁కావలసిన	-10.1672
▁ముఖ్యమైన	-10.1678
▁ప్రయత్నిస్తాన	-10.168
▁విషయ	-10.1719
▁decide	-10.1719
▁ఆన్	-10.1721
▁నగరం	-10.1721
▁protect	-10.1722
▁ఆకలి	-10.1722
▁smart	-10.1734
il	-10.1734
▁శ్రద్ధ	-10.1735
▁heavy	-10.1735
▁చదివాను	-10.1736
▁arm	-10.1742
▁sound	-10.1745
▁వయసులో	-10.1753
▁కొనాల	-10.1755
ive	-10.1773
hrew	-10.1788
ద్దాం	-10.1799
▁నేర	-10.1801
▁బయటపడ	-10.1803
ment	-10.1804
▁కన్నా	-10.1819
▁వయసు	-10.1827
v	-10.1832
▁studied	-10.1845
▁truck	-10.1845
▁మెయిల్	-10.1845
▁ఏడుపు	-10.1846
▁apples	-10.1847
▁పట్టుకున్నాడు	-10.1847
▁పార్కులో	-10.1853
▁వెళ్ళింది	-10.1854
▁చెప్పను	-10.1854
hose	-10.1862
▁పట్టణంలో	-10.1864
▁చూస్తున్నాడు	-10.1868
▁singing	-10.1876
▁warm	-10.1881
న్న	-10.1904
▁forgive	-10.1914
▁చర్చి	-10.1916
▁law	-10.1926
▁కారణంగా	-10.193
▁discuss	-10.1934
▁follow	-10.1934
▁convince	-10.194
▁fat	-10.1951
▁difference	-10.1956
▁patient	-10.1956
▁telephone	-10.1956
▁అకస్మాత్తుగా	-10.1956
▁చేస్తే	-10.1956
▁ball	-10.1956
▁అయితే	-10.1956
▁రాశాడు	-10.1956
▁ఆసక్తికరమైన	-10.1956
▁bath	-10.1963
▁3	-10.1966
▁తోటలో	-10.1969
▁చూశారు	-10.1976
▁kid	-10.1981
▁begin	-10.1984
▁చేయలేడు	-10.1987
sk	-10.1992
▁ధరించి	-10.2011
ers	-10.2025
▁షాప	-10.2048
▁తాగి	-10.2051
ుకున్నాడు	-10.2067
▁extreme	-10.2068
▁చక్కెర	-10.2068
▁నీలం	-10.2068
▁నాటికి	-10.2069
▁దాడి	-10.2069
▁తీసుకున్నాను	-10.2074
▁కోరుకుంటున్న	-10.2074
▁రెండుసార్లు	-10.2074
▁చేయగలరని	-10.2077
▁స్వే	-10.2077
▁respect	-10.2082
▁ordered	-10.2088
▁పడుకున్నా	-10.2101
షధం	-10.2117
▁watched	-10.2118
▁At	-10.2135
▁ఏడు	-10.2137
▁plays	-10.2138
is	-10.2166
▁తల	-10.2174
▁క్రొత్త	-10.2178
▁జాక్సన్	-10.2178
▁అవసరమైన	-10.2178
▁impossible	-10.2182
▁pencil	-10.2182
▁చెత్త	-10.2182
▁blood	-10.2182
▁తింటాడు	-10.2184
▁వ్యతిరేకంగా	-10.2188
▁10	-10.2191
▁చేసాడు	-10.2194
▁పొరపాటు	-10.2196
▁సరేనా	-10.2198
▁మే	-10.2205
▁color	-10.2207
▁chair	-10.2208
▁కత్తిరించ	-10.2208
▁తీసుకో	-10.2213
▁brothers	-10.2213
▁కష్టపడి	-10.2222
▁వేయ	-10.2237
▁వస్తాన	-10.2237
▁వ్యక్తుల	-10.2238
▁మాట్లాడాడు	-10.2247
▁నిందించ	-10.2249
కో	-10.2264
▁మనసు	-10.2266
ీర్	-10.2273
దాం	-10.2273
▁అంతే	-10.2277
▁వంట	-10.2291
▁ప్రవేశించ	-10.2292
▁across	-10.2297
▁earlier	-10.2297
▁obvious	-10.2297
▁remain	-10.2297
▁sugar	-10.2297
▁ప్రారంభమైంది	-10.2297
▁sweater	-10.2298
▁చెప్తాను	-10.2298
▁నివసిస్తున్నాను	-10.2303
▁మాట్లాడతాడు	-10.2304
▁చేస్తున్నాము	-10.2314
▁returned	-10.2316
▁నిరాశ	-10.2326
▁raining	-10.2326
▁భాగం	-10.2332
▁నెలలో	-10.2334
లి	-10.2337
▁Sta	-10.2337
▁దయ	-10.2368
▁టాక్సీ	-10.2395
▁accept	-10.2399
▁చెప్పే	-10.24
▁ఎరుపు	-10.2413
▁రహదారి	-10.2413
▁calm	-10.2413
▁lend	-10.2413
▁నాడీ	-10.2413
▁ఇబ్బందుల్లో	-10.2413
▁స్థానిక	-10.2413
▁మనమం	-10.2418
▁కనిపిస్తారు	-10.2419
▁వెళ్ళాము	-10.242
▁ఆలోచిస్తున్నాను	-10.2421
▁cats	-10.2426
▁c	-10.2428
▁standing	-10.2428
▁నాది	-10.2434
▁మంచ	-10.2435
ఫ్	-10.2452
▁వింతగా	-10.2454
ro	-10.2457
▁వెళ్ళవలసి	-10.2457
గ్	-10.2481
▁ధైర్యం	-10.2512
▁రుణ	-10.2521
▁allow	-10.2527
▁nobody	-10.2531
▁ఏడాది	-10.2531
▁నమ్మలేకపోతున్నా	-10.2531
▁బాలుడు	-10.2531
▁సొంత	-10.2531
▁stood	-10.2531
▁dirty	-10.2531
▁అనేక	-10.2535
us	-10.2535
▁విన్నాడు	-10.2537
▁కీల	-10.2546
▁లేని	-10.2567
▁ఇస్తాన	-10.257
ాలనుకున్నాను	-10.2575
la	-10.258
▁జ్	-10.2588
▁Ca	-10.2592
▁వ్యక్తులు	-10.2593
▁boys	-10.2617
▁పనిచేయ	-10.2622
▁ఉంటార	-10.2623
▁ఉంటాన	-10.2629
▁ఆధారపడ	-10.2636
▁seven	-10.265
▁ఒక్కరూ	-10.265
▁బాటిల్	-10.265
▁గోల్ఫ	-10.265
▁boyfriend	-10.2651
దరం	-10.2651
▁hiding	-10.2657
▁ప్రదేశం	-10.2661
▁చెప్పలేను	-10.2661
▁carefully	-10.2663
▁పొందాడు	-10.2663
▁smile	-10.2664
▁cooking	-10.2668
▁ప్ర	-10.2682
▁smell	-10.2682
▁Sunday	-10.2682
▁గంటల	-10.2691
▁పాటు	-10.2731
▁కుర్చీ	-10.2745
నక్కి	-10.2769
▁understood	-10.277
▁వంతెన	-10.277
▁soccer	-10.2771
▁చింతించకండి	-10.2771
▁తాత	-10.2771
▁case	-10.2771
▁సగం	-10.2772
▁bare	-10.2774
▁taller	-10.2775
▁నిద్రపోయాడు	-10.2779
▁ex	-10.279
▁ఉండదు	-10.279
▁వెళ్లాను	-10.2791
▁స్నేహితుడి	-10.2791
▁fall	-10.2797
▁rare	-10.2807
▁sea	-10.2819
మైనది	-10.2853
▁ఆపిల్ల	-10.2853
▁Mos	-10.2855
▁మంటల	-10.2865
▁check	-10.288
ినది	-10.2886
▁పెంచ	-10.2888
ెన్స్	-10.2891
▁common	-10.2892
▁చిన్నతనంలో	-10.2892
▁కాంతి	-10.2892
▁golf	-10.2892
▁chess	-10.2892
▁దేశం	-10.2893
▁cream	-10.2895
▁ఒప్పందం	-10.2895
▁Not	-10.2896
▁పోలీసు	-10.2898
▁faster	-10.29
▁అనలేదు	-10.29
▁ఆదా	-10.2903
▁forgotten	-10.2912
▁చిత్రాలు	-10.2923
▁newspaper	-10.2927
▁piece	-10.2927
▁simple	-10.2929
నుకుంటున్నారా	-10.293
fter	-10.2932
▁animals	-10.2934
▁వార్తాపత్రిక	-10.2939
▁answered	-10.2959
▁నీకు	-10.2959
▁చోట	-10.2961
▁గెలవ	-10.2965
▁ప్రారంభించా	-10.2981
▁సినిమాల	-10.2981
▁సం	-10.2982
▁నీటి	-10.2985
▁consider	-10.3003
▁success	-10.3008
ిద్దర	-10.3015
▁Should	-10.3016
▁herself	-10.3016
▁speech	-10.3016
▁ఉత్తీర్ణత	-10.3016
▁చాక్లెట్	-10.3016
▁weird	-10.3016
▁New	-10.3016
▁బటన్	-10.3016
▁తీసుకోవచ్చా	-10.3016
▁bridge	-10.3018
▁మాట్లాడతాను	-10.3019
▁slowly	-10.302
▁button	-10.302
▁అనుమానిస్తున్నా	-10.3026
▁అన్న	-10.3042
▁మరెవర	-10.3056
▁ట్రా	-10.3059
▁విద్యార్థి	-10.3059
▁ఉండడు	-10.3068
▁మాట్లాడే	-10.3073
▁wears	-10.3076
▁గ్లాసు	-10.308
ున్నాను	-10.308
▁ఫ	-10.3081
▁చివరికి	-10.309
▁America	-10.3096
▁ప్రేమించ	-10.312
▁మూసివేయ	-10.3121
at	-10.3124
▁రద్ద	-10.3127
▁నింప	-10.313
▁పెన్సిల్	-10.3137
▁ఇదే	-10.3139
▁jealous	-10.3141
▁machine	-10.3141
▁wallet	-10.3141
▁lake	-10.3141
▁dishes	-10.3141
▁పట్టించుకోను	-10.3151
▁దొంగ	-10.3153
▁Isn	-10.3154
▁shower	-10.3155
▁జైలులో	-10.3162
▁లు	-10.3163
▁వంటల	-10.3165
▁చెట్ల	-10.3169
▁ధనవంతుడు	-10.3172
ాలనుకుంటున్నాము	-10.3173
▁walking	-10.3181
▁windows	-10.3192
▁On	-10.3197
as	-10.323
▁క్షణం	-10.3249
▁భవిష్యత్తు	-10.3249
ిస్తుంది	-10.3254
▁వ్యాపారం	-10.3261
▁certain	-10.3265
▁chocolate	-10.3267
▁మళ్ల	-10.3268
▁control	-10.3268
▁bored	-10.3269
▁punished	-10.327
▁తిరస్కరించ	-10.3277
▁తీసుకెళ్ల	-10.328
▁ఇవి	-10.3283
▁convinced	-10.3286
▁తేదీ	-10.3293
▁risk	-10.3303
మీ	-10.3319
▁గుడ్ల	-10.332
▁నడిచా	-10.3326
▁లేర	-10.3354
▁కనిపించ	-10.3355
▁వీధి	-10.3371
▁experience	-10.3379
ంలో	-10.338
▁యుద్ధం	-10.3383
▁ఇలాంటి	-10.3387
▁deep	-10.3389
▁బలవంతం	-10.3396
▁అద్దె	-10.3396
▁కూర్చుని	-10.3396
▁సీటు	-10.3396
▁dating	-10.3396
▁mood	-10.3396
▁guilty	-10.3396
▁సూర్యుడ	-10.3401
▁ఇస్తున్నా	-10.3403
▁కొట్టడం	-10.3408
▁హక్కు	-10.341
ware	-10.3422
▁వచ్చింద	-10.3429
▁eggs	-10.3429
కపోతే	-10.3435
▁చేయరు	-10.3449
▁రైలులో	-10.346
▁Am	-10.3488
ry	-10.3493
▁రాత్ర	-10.3497
రో	-10.3499
▁fair	-10.3505
▁జాబితా	-10.3507
▁ఉదయ	-10.3515
▁నారింజ	-10.3525
▁built	-10.3525
▁support	-10.3525
▁వెచ్చ	-10.3526
▁మొదటిసారి	-10.3526
▁sold	-10.3527
▁blind	-10.3528
▁అయింది	-10.3528
▁అప్పుడు	-10.3533
▁అనుభవం	-10.3534
▁locked	-10.3535
▁చేయలేము	-10.354
▁పడ్డాడు	-10.3544
▁తినలేదు	-10.3549
▁meant	-10.3549
▁expecting	-10.355
▁వీధిలో	-10.3551
▁rent	-10.3551
▁deserve	-10.3552
▁కాలు	-10.3553
▁లైట్	-10.3569
▁తీసుకోవ	-10.3575
▁అదృష్టం	-10.3591
▁సంతృప్తి	-10.3594
▁గుండ	-10.3595
ఫిక్	-10.3608
▁ఉన్నాయ	-10.3622
▁కావ	-10.3637
▁climb	-10.3647
▁తీవ్రమైన	-10.3653
:30	-10.3657
▁గుర్తుందా	-10.3658
▁post	-10.3659
▁ఆశ్చర్యపోయాడు	-10.366
▁woke	-10.366
▁నాశన	-10.3666
▁రాయడం	-10.3666
▁చేర	-10.367
▁హో	-10.3696
▁ఆహ్వానించ	-10.37
▁wall	-10.3707
▁భవనం	-10.3719
▁player	-10.3724
వద్దని	-10.3725
▁ముందుకు	-10.3746
▁staying	-10.3749
▁trees	-10.376
▁ring	-10.3765
▁టోక్యో	-10.3772
▁fly	-10.3787
▁మర్యాద	-10.379
▁absent	-10.379
▁injured	-10.379
▁teeth	-10.379
▁తుఫాను	-10.379
▁శాండ్	-10.379
▁map	-10.379
▁కనిపిస్తుంది	-10.3791
▁కోరుకున్నది	-10.3793
▁చెప్పకండి	-10.3795
▁avoid	-10.3799
▁painted	-10.3801
గలమా	-10.3823
▁చూడాలి	-10.3827
▁నాపై	-10.3827
▁languages	-10.3833
▁mountain	-10.3837
▁ముక్క	-10.3848
▁line	-10.3871
బోతున్నాడు	-10.3875
▁American	-10.3885
▁కనుగొన్న	-10.3907
▁నమ్మకం	-10.3907
▁except	-10.3915
▁భయంకర	-10.3917
▁honest	-10.3922
▁తెలివి	-10.3925
▁popular	-10.3925
▁మానసిక	-10.3925
▁beginning	-10.3926
▁బంతి	-10.3926
▁అసాధ్యం	-10.3926
▁held	-10.3926
▁pool	-10.3928
▁లావ	-10.393
జీవం	-10.3931
▁grandfather	-10.3932
li	-10.3938
ist	-10.3946
▁remind	-10.3949
▁మాట్లాడాల	-10.395
▁singer	-10.3951
▁కొట్టాడు	-10.3952
▁మాట్లాడాను	-10.3964
ొ	-10.3965
▁G	-10.3972
▁నిమిషాల	-10.4002
▁nor	-10.4005
▁spoken	-10.4009
బడ్డాయి	-10.4021
▁రహస్య	-10.4027
▁ఆయనకు	-10.4027
el	-10.403
▁సోదరుడి	-10.4032
▁నవల	-10.4056
▁పైకప్పు	-10.4057
▁విచారం	-10.4062
▁Chinese	-10.4062
▁awake	-10.4062
▁తెరిచాడు	-10.4062
▁తేడా	-10.4062
▁వలె	-10.4063
▁కోరుకున్నాను	-10.4064
▁carry	-10.4068
▁forward	-10.4071
▁గుర్తుంచుకో	-10.4072
▁మరణం	-10.4075
▁నడప	-10.4081
▁saved	-10.4085
ous	-10.4086
▁ఇష్టపడరు	-10.4087
▁పిల్లులు	-10.4089
▁విడిచిపెట్ట	-10.4089
▁గమనించ	-10.409
▁అంగీకరించాడు	-10.409
▁దానిపై	-10.4093
▁పురుషులు	-10.4096
▁అతి	-10.4102
ేవాడు	-10.4108
▁calling	-10.414
కపోవచ్చు	-10.4172
▁రంగులో	-10.4172
▁eight	-10.4199
▁బిల్లు	-10.42
▁అధిక	-10.42
▁appreciate	-10.4201
▁తలనొప్పి	-10.4201
▁పిజ్జా	-10.4201
▁మాట్లాడుతూ	-10.4201
▁హామీ	-10.4201
▁పోరాడ	-10.4227
▁suitcase	-10.4253
▁bird	-10.4254
▁వయస్సులో	-10.4262
▁మార్గంలో	-10.4285
▁వారాల	-10.4312
▁కుటుంబ	-10.4329
ై	-10.4336
▁ప్రేమిస్తాడు	-10.4342
▁సంప్రదించ	-10.4342
▁స్కీయింగ్	-10.4342
▁ఆశిస్తున్నాము	-10.4342
▁contact	-10.4342
▁మీరిద్దర	-10.4342
▁విరిగింది	-10.4343
▁రెండవ	-10.4343
▁ఎనిమిది	-10.4343
▁ప్రారంభమవుతుంది	-10.4344
▁సందేశం	-10.4348
▁కో	-10.4354
▁భయపెట్ట	-10.4354
▁పడటం	-10.4354
▁picked	-10.4358
▁single	-10.4364
▁వంటగదిలో	-10.4366
▁చెస్	-10.4367
▁అయ్యాను	-10.4368
3	-10.4375
▁ill	-10.4378
▁ప్రయత్నిస్త	-10.4383
▁though	-10.4385
▁లేవ	-10.4385
▁gr	-10.4389
▁novel	-10.4396
▁అందరి	-10.4413
▁సహాయ	-10.4414
▁fact	-10.4421
▁దుస్తుల	-10.4426
till	-10.443
▁వందల	-10.4438
I	-10.4442
▁ల	-10.4459
▁తొందర	-10.4466
▁చూడలేద	-10.4482
▁pizza	-10.4485
▁grandmother	-10.4485
▁headache	-10.4485
▁ఉన్నందున	-10.4486
▁విసిరాడు	-10.4487
▁జరుగుతోంది	-10.4488
తి	-10.4491
▁failed	-10.4491
▁ఆఫ్	-10.4496
▁తెలివైన	-10.4497
▁పొడవుగా	-10.4499
▁తీసుకున్నారు	-10.45
▁ప్రారంభించారు	-10.4503
హ	-10.452
▁learning	-10.4528
hap	-10.4529
లైస	-10.4533
▁శిక్ష	-10.4551
▁జరగ	-10.4559
▁top	-10.4561
▁ముక్కు	-10.4561
▁drinks	-10.4564
▁So	-10.4565
వాడిని	-10.4582
▁sisters	-10.4589
▁వెతుకుతున్న	-10.459
▁రహస్యం	-10.4601
▁చెప్పార	-10.4616
▁పొడవైన	-10.4626
▁green	-10.463
▁జలుబు	-10.463
▁టెలివిజన్	-10.463
▁flight	-10.463
▁ఎందుకంటే	-10.463
▁moon	-10.463
▁వివరణ	-10.463
▁recently	-10.4631
▁suit	-10.4631
▁అసలు	-10.4632
▁ఉద్దేశ్యం	-10.4632
▁boat	-10.4635
▁నేర్చుకోవడం	-10.4637
▁ఇష్టపడుతున్నాను	-10.4643
▁offered	-10.4648
▁సోదరులు	-10.4648
▁పెద్దవాడు	-10.4649
▁వెళ్ళవచ్చు	-10.465
▁మంచివాడు	-10.4655
▁apologized	-10.4668
▁కార్ల	-10.4668
▁అవసరమా	-10.4679
▁bill	-10.4682
▁వెళ్లకూడద	-10.4717
▁pleased	-10.4718
టర్	-10.4723
▁clock	-10.4727
▁పదాల	-10.4732
▁Per	-10.4732
▁సంపాదించ	-10.4736
▁ఉండి	-10.4745
▁నచ్చిన	-10.475
ల్లో	-10.4755
▁vote	-10.4763
▁fool	-10.4765
▁ప్రపంచ	-10.4766
▁పట్టణ	-10.4768
▁ఇష్టపడలేద	-10.4775
▁admit	-10.4777
▁license	-10.4777
▁passport	-10.4777
▁earth	-10.4778
▁మాట్లాడతారు	-10.4778
▁ఎవరితోన	-10.478
▁ఇష్టపడుతున్నాడ	-10.4781
▁prepared	-10.4782
▁divorced	-10.4783
▁forced	-10.4786
▁sleepy	-10.4792
ul	-10.4793
▁పడుతుందని	-10.4802
▁వచ్చి	-10.4805
▁అద్దాలు	-10.4809
▁explained	-10.4813
ity	-10.4824
▁రోజుల	-10.4833
ుకుంది	-10.4841
ిస్తున్నాను	-10.4866
▁వస్తువుల	-10.4869
▁ఇస్తా	-10.487
మే	-10.488
ie	-10.4893
ాన్స్	-10.4895
▁sounds	-10.4896
ce	-10.4907
▁పట్టణం	-10.4911
▁చేయకూడదు	-10.4916
▁అడిగిన	-10.4916
▁television	-10.4926
▁traffic	-10.4926
▁కంపెనీ	-10.4926
▁క్రీం	-10.4926
▁మనస్సు	-10.4926
▁shopping	-10.4926
▁మ్యాప్	-10.4926
▁క్లాస్	-10.4928
▁చేసుకోవడం	-10.493
▁healthy	-10.4931
▁An	-10.4931
▁soup	-10.4932
▁వెళ్తాము	-10.4932
▁చెప్పాల్సిన	-10.4932
▁వెళ్ళలేను	-10.4933
▁తిన్నాను	-10.4934
▁tickets	-10.4934
లేదని	-10.495
▁చేపల	-10.4952
▁కుడి	-10.4955
▁ఏముంద	-10.4964
ong	-10.4966
▁straight	-10.497
▁చేస్తున్న	-10.4975
▁nose	-10.4976
కా	-10.4978
▁art	-10.4982
ాల్సి	-10.4983
▁ఇ	-10.5
▁ఇద్దరిక	-10.502
▁లేము	-10.5022
▁స్నేహితుడిని	-10.5026
ార్క్	-10.5046
▁leaves	-10.5047
▁మార్పు	-10.5049
▁లైబ్రరీ	-10.5054
▁అమెరికన్	-10.5073
▁Life	-10.5078
▁చైనీస్	-10.5078
▁రెట్లు	-10.5078
▁crime	-10.5078
▁thousand	-10.5078
▁తీసుకుందాం	-10.5078
▁feed	-10.5079
▁బీర్	-10.5079
▁వాస్తవానికి	-10.508
▁కఠినమైన	-10.508
▁విశ్వసించ	-10.5081
▁ఉండకండి	-10.5083
▁తడి	-10.5084
▁స్ప	-10.5089
▁పో	-10.5093
▁జాబితాలో	-10.5099
▁బ్యాంకు	-10.5108
▁ఒకరిక	-10.5128
▁నివసించాడు	-10.5137
▁100	-10.5145
ol	-10.5146
ma	-10.5155
▁నెలల	-10.5166
ful	-10.517
థ	-10.5182
ow	-10.519
▁పుట్ట	-10.52
▁భావించాన	-10.52
▁cross	-10.5219
▁ఉండాల్సి	-10.522
▁luck	-10.5229
▁న్యూ	-10.5231
▁Wait	-10.5232
▁definite	-10.5232
▁permission	-10.5232
▁కురిసింది	-10.5232
▁పక్షి	-10.5232
▁ప్రధాన	-10.5232
▁రచయిత	-10.5232
▁శక్తి	-10.5232
▁సూప్	-10.5232
▁స్టోర్	-10.5232
▁sky	-10.5232
▁ground	-10.5232
▁ఎర్ర	-10.5232
▁తింటాను	-10.5233
▁తెలియజేయండి	-10.5234
▁కావాలంటే	-10.5234
▁జత	-10.5234
▁నేనే	-10.5236
▁నవ్వారు	-10.5237
▁impressed	-10.5238
▁received	-10.524
▁కాగితం	-10.5243
▁grow	-10.5244
ంట	-10.525
▁నిజమని	-10.5262
▁పద	-10.5267
▁God	-10.5271
▁తప్పుల	-10.5271
▁మహిళలు	-10.5298
▁చేసుకో	-10.5299
▁తగ్గించ	-10.5305
▁paint	-10.531
▁ఆనందించ	-10.532
▁కొనుగోలు	-10.5321
▁చూస్తున్నార	-10.534
ch	-10.536
▁మిస్	-10.5383
▁low	-10.5383
▁తేలిక	-10.5387
▁pair	-10.5388
▁కృషి	-10.5388
▁తీసుకురండి	-10.5388
▁పానీయం	-10.5388
▁ప్రతిపాదన	-10.5388
▁ప్రమాణ	-10.5388
▁మద్దతు	-10.5388
▁సరియైనద	-10.5388
▁సూపర్	-10.5388
▁stick	-10.5388
▁throw	-10.5388
▁చెందినది	-10.5392
▁Nei	-10.5394
▁చింతిస్తున్నాను	-10.5396
▁rid	-10.5396
▁శీతాకాలంలో	-10.5397
ook	-10.5399
▁భావాల	-10.5399
▁అయ్యారు	-10.5403
▁మాట్లాడుతున్నాడ	-10.5408
ాడా	-10.5412
led	-10.5432
▁పెట్టెలో	-10.5434
▁జరగదు	-10.5438
▁neighbors	-10.5443
▁అవును	-10.5493
▁ర	-10.5505
ల్స్	-10.5516
బోతున్నారు	-10.5518
▁intend	-10.5534
▁ఆపు	-10.5544
▁మౌనం	-10.5547
▁drove	-10.5547
▁innocent	-10.5547
▁lonely	-10.5547
▁పెయింట్	-10.5547
ిగ్గర	-10.5547
▁అనుకున్నదానిక	-10.5547
▁కొద్ది	-10.5551
▁భావించ	-10.5553
▁అనుకుంటాడు	-10.5554
▁నచ్చింది	-10.5556
▁నిజమేనా	-10.5557
▁చేసుకోలేదు	-10.5561
▁sight	-10.5561
▁prove	-10.5564
ant	-10.5566
ng	-10.5566
▁హే	-10.5574
▁గడియార	-10.5574
▁దేశంలో	-10.5574
▁missing	-10.5575
▁సేవ	-10.5576
▁ఉండకూడదు	-10.5576
▁fit	-10.5583
▁feelings	-10.5586
▁complain	-10.5595
▁ప్రేమిస్తున్నాడ	-10.5596
▁అన	-10.5599
▁విద్యార్థుల	-10.561
ited	-10.5611
▁అంద	-10.5612
▁talks	-10.5631
▁Hey	-10.5632
▁f	-10.5637
▁అవ్వ	-10.5641
కెట్	-10.5647
షన్	-10.565
▁కోరుకో	-10.5661
బడలేదు	-10.5662
▁అయి	-10.5665
▁legs	-10.568
బ్	-10.5682
id	-10.5687
▁ఎక్క	-10.5695
▁breath	-10.5699
▁depend	-10.5706
▁London	-10.5708
▁Three	-10.5708
▁body	-10.5708
▁cried	-10.5708
▁native	-10.5708
▁village	-10.5708
▁zoo	-10.5708
▁పరుగెత్త	-10.5708
▁పర్యటన	-10.5708
▁పెయింటింగ్	-10.5708
▁మరికొన్ని	-10.5708
▁వీడ్కోలు	-10.5708
▁తొమ్మిది	-10.5708
▁moving	-10.5708
▁Show	-10.5708
▁ఏమిటంటే	-10.571
▁shy	-10.5711
▁విన్నారా	-10.5714
▁చిత్రించ	-10.5715
▁పెన్ను	-10.5717
▁వెళ్ళండి	-10.5719
▁ధరించలేదు	-10.572
▁జూ	-10.5723
ర్యం	-10.5732
▁చేయబోతున్నాను	-10.5733
లతో	-10.5736
▁listened	-10.5746
▁కిటికీల	-10.5753
▁య	-10.5759
▁bear	-10.5773
▁సి	-10.5785
▁అపార్ట్మెంట్	-10.5787
▁పా	-10.5793
▁వెర్రి	-10.5796
▁విన్న	-10.5801
▁speaker	-10.5809
nd	-10.5809
డాన్	-10.5821
▁lots	-10.5823
▁సరస్సు	-10.5845
▁suggest	-10.5849
▁సంఖ్య	-10.5857
▁hid	-10.5863
▁upstairs	-10.5872
▁అరువు	-10.5872
▁రాశాను	-10.5872
▁లండన్	-10.5872
▁fruit	-10.5872
▁brush	-10.5872
▁nine	-10.5872
▁yen	-10.5872
▁వెళ్ళేటప్పుడు	-10.5873
▁కాలి	-10.5874
▁satisfied	-10.5875
▁ఉంటాము	-10.5878
▁ప్రాచ	-10.5879
▁చేయగలిగినద	-10.5882
▁sh	-10.5882
▁వార్త	-10.5891
▁ఇవ్వడం	-10.5896
▁చదువుతున్నాడు	-10.5897
▁బాధించ	-10.5906
▁నిర్ణయించ	-10.591
▁చేస్తారా	-10.5913
▁త	-10.5928
▁ఖరీదైన	-10.5931
▁వెళ్ళాడ	-10.5933
00	-10.5943
▁దిగ	-10.598
డో	-10.6004
▁డాలర్ల	-10.6013
▁అమెరికా	-10.602
▁lock	-10.6023
▁త్రాగ	-10.6025
▁attend	-10.6026
▁వాదించ	-10.6033
▁sandwich	-10.6037
ought	-10.6038
▁foot	-10.6039
▁type	-10.6039
▁course	-10.6039
▁enemy	-10.6039
▁roof	-10.6039
▁ఉద్దేశపూర్వకంగా	-10.6039
▁ప్రకారం	-10.6039
▁షాక్	-10.6039
▁subject	-10.6039
▁డ్య	-10.6039
▁సుమారు	-10.6039
▁rice	-10.6039
▁cool	-10.6039
▁అయ్యింది	-10.6039
▁ఆరోగ్య	-10.604
▁పేర్ల	-10.6041
▁ప్రసంగం	-10.6043
▁filled	-10.6044
▁లేచి	-10.605
▁బాధపెట్ట	-10.6053
▁అడుగు	-10.6054
▁island	-10.6055
డా	-10.6066
▁వెళ్తున్నాడు	-10.6072
▁వారాలు	-10.6082
▁అవ	-10.6091
▁నియమించ	-10.6091
▁రహస్యంగా	-10.6094
▁బొమ్మ	-10.6099
▁వివరాల	-10.6099
▁హించిన	-10.611
▁ఒక్కరి	-10.6111
▁seeing	-10.6125
వే	-10.6128
▁లెక్కించ	-10.613
▁అప్పు	-10.6134
వర్క్	-10.614
ళ్ళు	-10.615
ight	-10.6162
▁రి	-10.6165
▁నియమాల	-10.6166
▁నే	-10.6171
▁తెల్ల	-10.6174
▁దేశ	-10.6176
handed	-10.6179
▁ఇష్టపడతార	-10.6184
కూడద	-10.6187
▁favor	-10.6208
▁ourselves	-10.6208
▁purpose	-10.6208
▁ప్రమాదకరం	-10.6208
▁ప్రశాంత	-10.6208
▁మేడమీద	-10.6208
▁సుద	-10.6208
▁stuff	-10.6208
▁క్లబ్	-10.6208
▁కొనసాగించ	-10.6211
▁గడిపాను	-10.6211
▁mouth	-10.6212
▁ఇవ్వగలరా	-10.6214
▁కావడం	-10.6214
▁మూడేళ్ళు	-10.6216
▁certainly	-10.6216
▁మారింది	-10.6219
▁వ్రాయ	-10.6219
▁పిలుస్తాను	-10.6223
▁చెడ్డది	-10.6226
▁See	-10.6227
▁వెళ్ళిపోయాడు	-10.6234
▁guys	-10.6238
▁వార్తలు	-10.6247
్తోంది	-10.6289
▁handle	-10.6291
▁wood	-10.6294
▁వస్తార	-10.6295
▁birds	-10.6315
మి	-10.6317
▁కుక్కలు	-10.6323
▁నేర్పించ	-10.6328
▁చెక్క	-10.6337
లే	-10.6339
▁మార్కెట్	-10.6349
ver	-10.6356
▁letters	-10.6359
▁wind	-10.6361
▁మహిళల	-10.6361
▁refuse	-10.6364
▁చలి	-10.6379
▁absolute	-10.638
▁idiot	-10.638
▁rude	-10.638
▁జీతం	-10.638
▁వ్యవస్థ	-10.638
▁ఫుట్	-10.638
▁గాజు	-10.638
▁duty	-10.6381
▁France	-10.6381
▁rock	-10.6381
▁చూశాము	-10.6381
▁Never	-10.6381
▁excuse	-10.6381
▁పనిచేస్తుంద	-10.6383
▁ఉండేది	-10.6385
ందరూ	-10.6387
▁చెయ్య	-10.6388
▁raised	-10.6393
▁భయపడ్డాను	-10.6398
▁వెళ్ళారు	-10.6401
▁con	-10.6402
న్నా	-10.6407
▁dis	-10.6408
▁మరణ	-10.6417
లేకపోయాను	-10.6424
▁ఆనందించా	-10.6428
ితే	-10.6436
▁నెలలు	-10.6454
un	-10.6458
▁బలహీన	-10.6474
▁ఫ్రాన్స	-10.6476
▁ఉపయోగించవచ్చ	-10.6484
▁నిర్మించ	-10.6508
▁గడప	-10.6513
▁pro	-10.6518
▁నచ్చలేద	-10.6521
▁అవుతుంద	-10.6546
▁వ్యవహరించ	-10.6551
hings	-10.6552
▁తనతో	-10.6554
▁Every	-10.6554
▁జాకెట్	-10.6556
▁boring	-10.6556
▁countries	-10.6556
▁jail	-10.6556
▁అభినందిస్తున్నా	-10.6556
▁ఆర్థిక	-10.6556
▁క్యాన్సర్	-10.6556
▁టీచర్	-10.6556
▁ఫ్రెండ్	-10.6556
▁యాత్ర	-10.6556
▁club	-10.6556
▁bike	-10.6556
▁వాలెట్	-10.6556
▁race	-10.6557
▁నిమిషాల్లో	-10.6557
▁చెప్పాలంటే	-10.6557
▁పడుతోంది	-10.6558
▁suddenly	-10.6559
▁మానేయండి	-10.6559
▁ess	-10.6559
▁land	-10.656
▁చూసింది	-10.6563
▁గుర్తుంది	-10.6563
▁నో	-10.6566
▁నమ్మరు	-10.6566
▁గమనించలేదు	-10.6568
▁కలిగించ	-10.6572
gged	-10.6575
▁వినడం	-10.6576
gotten	-10.6577
మెంట్	-10.6578
▁పొందడానికి	-10.6579
▁లైబ్రరీలో	-10.6584
▁చేస్తున్నాన	-10.6584
▁తరగతిలో	-10.6588
▁sports	-10.6588
ish	-10.6591
ness	-10.6604
▁gas	-10.6608
tic	-10.6611
▁మర్చిపో	-10.6615
ine	-10.6616
సి	-10.6627
▁results	-10.6629
▁pocket	-10.6645
▁మాట్లాడడు	-10.6647
▁కళ	-10.6652
▁కీలు	-10.6665
▁La	-10.6666
▁చేతుల	-10.6675
▁కొ	-10.6683
▁కంటి	-10.6683
▁songs	-10.6685
▁మార్	-10.6716
▁invite	-10.6718
▁realize	-10.6719
▁వెళ్ళాల	-10.6722
▁succeed	-10.6722
ేటప్పుడు	-10.6723
▁బ్లాక్	-10.6723
▁normal	-10.6728
▁foreign	-10.6731
▁విలువ	-10.6734
▁Street	-10.6734
▁college	-10.6734
▁supermarket	-10.6734
▁దోషి	-10.6734
▁రిస్క్	-10.6734
▁dying	-10.6734
▁choose	-10.6735
▁unlikely	-10.6735
▁సమీపంలో	-10.6735
▁star	-10.6735
▁awful	-10.6735
ావా	-10.6735
▁చరిత్ర	-10.6735
▁Leave	-10.6736
▁Germany	-10.6737
▁ధరిస్తాడు	-10.6737
ck	-10.6738
▁warned	-10.6744
▁నవ్వింది	-10.6744
▁vegetables	-10.6748
▁నివసిస్తున్నాడ	-10.6749
▁realized	-10.6751
▁Tur	-10.6752
▁అనిపించలేదు	-10.6756
▁ఇష్టమా	-10.6757
▁తాగాడు	-10.6775
▁విమానంలో	-10.678
▁details	-10.6785
వడం	-10.6788
▁మెట్ల	-10.6796
▁forever	-10.6797
▁mistaken	-10.68
▁Al	-10.6803
man	-10.6813
▁గడిపాడ	-10.6817
▁నేటి	-10.6818
▁లాగ	-10.6889
▁murder	-10.6899
▁pie	-10.6901
▁పడవ	-10.6904
▁చేస్తుంద	-10.6906
▁hold	-10.6907
▁పట్టించుకోవ	-10.6911
▁understands	-10.6916
hildren	-10.6916
▁నిలబడ	-10.6916
▁Somebody	-10.6916
▁argue	-10.6916
▁goodbye	-10.6916
▁sang	-10.6916
▁jacket	-10.6916
▁rope	-10.6916
▁అనుభూతి	-10.6916
▁బైక్	-10.6916
▁కోరుకుంటారు	-10.6916
▁షెడ్	-10.6917
▁ఒకేసారి	-10.6917
▁విండో	-10.6919
▁కోల్పో	-10.6926
▁entered	-10.6927
▁cookies	-10.693
▁seriously	-10.6935
▁followed	-10.6936
▁జరగలేదు	-10.6941
▁డ	-10.6945
ుకోవాలి	-10.6951
▁క్రింద	-10.6953
om	-10.6976
▁వస్తారు	-10.698
ia	-10.6985
▁ద్వేషిస్తున్నాన	-10.6991
▁rule	-10.7014
▁lights	-10.7021
▁గెలవాల	-10.7021
▁పరిగెత్త	-10.704
గానే	-10.704
▁మరచిపోలే	-10.7058
▁ఎలాగ	-10.706
ుతున్నాడు	-10.7071
▁తిన్న	-10.7074
▁For	-10.7076
▁ఫోటో	-10.7076
▁చేసుకున్న	-10.7083
▁act	-10.71
▁Europe	-10.7101
xcuse	-10.7101
▁account	-10.7101
▁explanation	-10.7101
▁joking	-10.7101
▁private	-10.7101
▁solution	-10.7101
▁thirteen	-10.7101
▁నిరూపించ	-10.7101
▁పదమూడ	-10.7101
▁ఫిషింగ్	-10.7101
▁విదేశీ	-10.7101
▁Park	-10.7101
▁football	-10.7101
▁storm	-10.7101
▁cancer	-10.7101
▁gold	-10.7102
▁పరిష్కారం	-10.7103
▁Bring	-10.7105
ావు	-10.7105
▁మరణించారు	-10.7105
▁చూస్తూ	-10.7105
▁పడిపోయాడు	-10.7105
▁skiing	-10.7107
▁co	-10.7108
▁shop	-10.711
▁పరిశీలించ	-10.711
▁అద్భుతమైనది	-10.7114
▁ప్రారంభంలో	-10.7114
▁కనుగొనడం	-10.7115
▁వినండి	-10.712
▁washing	-10.7122
▁చెందలేదు	-10.7123
▁ప్రారంభించింది	-10.7123
▁washed	-10.7129
▁మేల్కొని	-10.7133
▁కొనాలి	-10.7134
▁పడ్డాను	-10.7134
▁తెలివితక్కువవాడ	-10.7137
▁నిర్ణయ	-10.7137
bo	-10.7137
▁మాట్లాడగలడు	-10.7142
నం	-10.7156
▁H	-10.7162
▁కట్ట	-10.7164
▁ఫ్లై	-10.7167
▁చేయగలమ	-10.7207
▁నిద్రపో	-10.7211
▁కాస్త	-10.7215
టా	-10.7221
▁వ్యక్త	-10.724
▁ఒప్పుకున్నాడ	-10.7241
▁bar	-10.7241
▁అనుకోలేద	-10.7244
▁పళ్ళ	-10.7255
▁మనందరిక	-10.7257
▁వ్యాపార	-10.7259
రావాలి	-10.7264
▁స్వచ్	-10.7266
▁imagine	-10.7274
▁escape	-10.7274
▁విమానాశ్రయ	-10.7276
▁కార్యాలయ	-10.728
ౌ	-10.7285
▁పట్టుకో	-10.7285
▁keeps	-10.7289
▁mail	-10.729
▁చిరునవ్వు	-10.729
▁York	-10.729
▁elevator	-10.729
▁lazy	-10.729
▁third	-10.729
▁ఆకుపచ్చ	-10.729
▁ఇడియట్	-10.729
▁ఎలివేటర్	-10.729
▁పరిగణించ	-10.729
▁వేడుక	-10.729
▁వైద్యుడి	-10.729
▁juice	-10.729
ిన్నం	-10.729
▁spring	-10.7291
▁handsome	-10.7291
▁వారిద్దర	-10.7291
▁size	-10.7291
▁రమ్మన	-10.7291
▁పనిచేశాడు	-10.7293
▁ద్వేషిస్తాడు	-10.7293
▁history	-10.7293
▁పిలవాల	-10.7295
ానం	-10.7302
▁కావడానికి	-10.7305
▁వదిలివేయ	-10.7311
▁అనుసరించ	-10.7317
▁harder	-10.7324
▁soldiers	-10.7328
▁చూపిస్తా	-10.7337
z	-10.7342
▁చేయన	-10.7348
▁బడి	-10.7353
▁వెళ్లాడు	-10.7355
యూల	-10.7355
▁trusted	-10.7357
▁మార్గ	-10.7358
▁అనువదించ	-10.7366
▁చెబుతున్నాడ	-10.7373
▁చదువుతున్నా	-10.7377
▁names	-10.7377
▁జంతువుల	-10.7385
▁యజమాని	-10.74
న్నారు	-10.7415
స్తుంది	-10.7424
▁ideas	-10.7435
▁దూక	-10.7444
▁buying	-10.7452
up	-10.7469
▁వాతావరణ	-10.747
▁slow	-10.7473
▁బార్	-10.7474
▁చేయగల	-10.7476
▁ప్రపంచం	-10.7477
▁chicken	-10.7482
▁fence	-10.7482
▁president	-10.7482
▁unhappy	-10.7482
▁ఇరవై	-10.7482
▁విరామం	-10.7482
▁instead	-10.7482
giving	-10.7482
▁project	-10.7482
▁cash	-10.7483
▁easier	-10.7483
▁చక్క	-10.7483
▁అమ్మమ్మ	-10.7483
▁వరుస	-10.7483
▁comfortable	-10.7483
▁ఆఫర్	-10.7484
▁పిలిచాను	-10.7485
▁accused	-10.7486
▁totally	-10.7486
▁జేబులో	-10.7486
▁తిన్నారు	-10.7486
▁చెప్పబడింది	-10.7487
▁తెలివైనవాడు	-10.7487
▁pulled	-10.7488
▁ఉప్పు	-10.7492
▁feet	-10.7493
▁నటించాడు	-10.7494
ీన్స్	-10.7495
▁చెబుతారు	-10.7497
▁caused	-10.7498
▁చెబుతున్నార	-10.7498
▁ahead	-10.7501
▁రావచ్చు	-10.7504
▁weak	-10.7507
▁ధరలు	-10.7513
▁fixed	-10.7515
cu	-10.7528
▁కదిలించ	-10.753
▁ముఖ్యమ	-10.7532
▁calls	-10.7534
▁మాట్లాడుతున్నాన	-10.7549
▁rains	-10.7554
▁l	-10.7557
▁వద్దు	-10.756
▁అందరిన	-10.7577
▁పట్టుకోవ	-10.7584
▁ముగించ	-10.7598
▁పొగ	-10.7605
ట్ట	-10.7607
▁తెలియ	-10.7625
▁వేల	-10.7629
▁పాయింట్	-10.7629
ఫ	-10.7641
▁ఉండలేన	-10.7641
▁లైట్ల	-10.7665
▁అంచనా	-10.7675
▁cheap	-10.7676
ead	-10.7677
▁special	-10.7678
▁fear	-10.7678
▁కంచె	-10.7679
▁silent	-10.7679
▁ఆతురుత	-10.7679
▁గడ్డం	-10.7679
▁గ్యాస్	-10.7679
▁పోర్ట్	-10.7679
▁లుకోటు	-10.7679
▁States	-10.7679
▁రేసు	-10.7679
▁తదుపరిసారి	-10.7679
▁admitted	-10.7679
▁classroom	-10.7679
▁స్టాప్	-10.7679
▁hole	-10.7679
▁బతిక	-10.768
▁చిన్నవాడిని	-10.7681
▁బాక్స్	-10.7682
▁smarter	-10.7683
▁ఇష్టపడ్డాడ	-10.7687
▁పిలుస్తారు	-10.7689
▁చెల్లించాలి	-10.769
▁తింటారు	-10.769
▁కనిపించాడు	-10.7691
▁managed	-10.7693
▁hired	-10.7694
▁జరగద	-10.7695
▁టిక్కెట్లు	-10.7698
▁నీవ	-10.7708
co	-10.7724
▁starting	-10.7731
ated	-10.7732
▁చట్ట	-10.7746
▁cars	-10.7753
▁జరిగిన	-10.7761
▁సెలవుల	-10.7767
▁Co	-10.7769
▁కావలసినద	-10.7795
▁note	-10.7807
వ్	-10.7816
pen	-10.7836
ంద	-10.7843
▁hated	-10.7846
▁తోట	-10.7853
▁enter	-10.7857
▁interest	-10.7857
▁push	-10.7866
ake	-10.7867
▁గుర్రం	-10.7877
▁తాక	-10.7878
▁పరిపూర్ణ	-10.7878
▁China	-10.7879
▁fresh	-10.7879
▁million	-10.7879
▁అలెర్జీ	-10.7879
▁స్మార్ట్	-10.7879
▁basketball	-10.7879
▁towel	-10.7879
▁shelf	-10.7879
▁అంటున్నారు	-10.7879
▁urgent	-10.7879
ునైట	-10.7879
▁worst	-10.788
▁మర్చిపోయాడు	-10.7884
▁పర్వతం	-10.7885
▁బదులుగా	-10.7885
▁లోతుగా	-10.7886
▁లేకపోతే	-10.789
ేది	-10.7891
రియ	-10.7893
▁చేయాలనుకున్నాడు	-10.7896
▁ఇవ్వాలి	-10.7897
▁heat	-10.7902
▁ఇష్టమ	-10.7903
▁e	-10.7906
▁తొలగించ	-10.7907
▁ఉంచాను	-10.7907
ిగా	-10.791
ain	-10.7912
థా	-10.7915
▁చెప్పవద్దు	-10.7918
▁schedule	-10.7919
నివ్వ	-10.792
▁జట్టులో	-10.7926
▁feels	-10.7936
▁తాడు	-10.7938
▁చనిపోయాడు	-10.7938
▁అబ్బాయిలు	-10.7943
▁సరేన	-10.7945
▁వీ	-10.7952
▁తండ్రిని	-10.7965
▁cards	-10.7966
▁ప్రదర్శన	-10.7974
▁సా	-10.7984
▁క్ల	-10.8002
▁hopes	-10.8008
▁painting	-10.8012
▁ఆశించా	-10.803
▁తేల	-10.8035
age	-10.8061
ంగ	-10.8061
▁rang	-10.8065
▁survive	-10.8066
▁reach	-10.8071
▁hire	-10.8077
▁salt	-10.808
▁Yesterday	-10.8083
▁bright	-10.8083
▁dancing	-10.8083
▁museum	-10.8083
▁నగదు	-10.8083
▁నిర్దోషి	-10.8083
▁పందెం	-10.8083
▁వృ	-10.8083
▁షెల్ఫ్	-10.8083
▁బెంచ	-10.8083
▁dropped	-10.8083
▁stuck	-10.8083
▁రెడ్	-10.8083
▁yes	-10.8083
▁వెబ్	-10.8083
▁మూడవ	-10.8083
▁చదువుతాను	-10.8084
▁policeman	-10.8085
▁ఉండేవాడు	-10.8086
▁పట్టుకోండి	-10.8087
▁వెంట	-10.809
▁అలసిపోయాడు	-10.8091
▁stronger	-10.8091
లేనని	-10.8092
▁పదం	-10.8096
▁socks	-10.8096
▁కనుగొనలేదు	-10.8098
▁కార్డుల	-10.8099
▁ప్రవర్తించ	-10.81
▁ప్రమాద	-10.81
▁చేయవచ్చ	-10.81
▁bench	-10.8103
▁సోదరీమణులు	-10.8104
▁వెళ్ళడు	-10.8109
▁సమీప	-10.8111
▁పిరి	-10.8113
▁శాంతి	-10.8115
▁ended	-10.8125
▁చేయదు	-10.8127
▁ఖండించ	-10.8127
▁సమావేశంలో	-10.8131
▁మాట్లాడారు	-10.8133
▁r	-10.8135
old	-10.815
▁appear	-10.8163
▁ప్లే	-10.8163
▁hang	-10.8177
▁beat	-10.8183
▁మరణించ	-10.8192
▁పాటించ	-10.8194
▁flower	-10.8206
▁ప్రత్యేక	-10.8247
▁చనిపోయాడ	-10.825
▁గోడ	-10.8262
▁పరి	-10.8264
▁hero	-10.8278
▁polite	-10.8285
కర్	-10.8288
▁ప్రవర్తన	-10.8291
▁Two	-10.8291
▁ashamed	-10.8291
▁capital	-10.8291
▁thief	-10.8291
▁బోరింగ్	-10.8291
▁అర్ధరాత్రి	-10.8291
▁అత్త	-10.8291
▁contract	-10.8291
▁రాసిన	-10.8291
▁plent	-10.8291
▁suicide	-10.8291
▁earthquake	-10.8291
▁corner	-10.8291
▁చేసుకుంది	-10.8292
▁కలుద్దాం	-10.8292
▁తీశాడు	-10.8295
▁covered	-10.8296
▁అరిచాడు	-10.8296
▁చేయకపోతే	-10.8297
▁వెళతారు	-10.8298
▁ప్రయత్నించాలి	-10.8301
▁చేస్తోంది	-10.8303
▁పట్టించుకోలేదు	-10.8305
▁కుక్కల	-10.8306
▁పడింది	-10.831
▁చెప్పినదాని	-10.831
▁దొంగిలించాడు	-10.8311
▁mom	-10.8311
▁బయలుదేరాలి	-10.8312
▁వెళ్ళాలో	-10.8313
▁నమ్మలేదు	-10.8319
▁పక్షులు	-10.8326
▁కనిపించడ	-10.834
▁ఎండ	-10.835
▁వంద	-10.8361
బడి	-10.8383
▁శత్రువు	-10.8414
▁result	-10.8416
▁games	-10.8423
▁వచ్చాడ	-10.8428
▁card	-10.8434
▁నటించ	-10.8436
▁చెప్పలేద	-10.844
▁లే	-10.8451
pe	-10.8452
▁నిజమే	-10.8476
▁బయలుదేరాల	-10.8476
▁చేసుకున్నార	-10.8489
▁విజయ	-10.8492
▁loud	-10.8495
▁యుద్ధ	-10.8497
ions	-10.8498
▁తరలించ	-10.85
▁German	-10.8501
▁peace	-10.8504
▁England	-10.8504
▁dad	-10.8504
▁kick	-10.8504
▁losing	-10.8504
▁ఇంగ్లాండ్	-10.8504
▁తెలిపా	-10.8504
▁దాహం	-10.8504
▁ఇప్పటివరకు	-10.8504
▁తీసుకొని	-10.8504
▁bathroom	-10.8504
▁exist	-10.8504
▁tears	-10.8504
▁వీటి	-10.8505
▁ఉన్నప్పటికీ	-10.8505
▁సరైనదని	-10.8505
▁చూస్తున్నాము	-10.8505
▁అనుకోడు	-10.8506
▁ఆశ్చర్యపోయాన	-10.8508
▁వాయించడం	-10.8508
▁frightened	-10.8509
▁300	-10.8511
ance	-10.8513
▁సైనికులు	-10.8513
▁నవ్వడం	-10.8514
▁ఈసారి	-10.8515
▁complaining	-10.8516
▁reached	-10.8516
▁కోల్పోయారు	-10.8517
▁successful	-10.8518
▁కార్యాలయంలో	-10.852
▁చదవండి	-10.8521
▁నిద్రపోలేదు	-10.8523
▁discussed	-10.8527
time	-10.8539
ందా	-10.8539
ుకోవడం	-10.8543
▁పాటలు	-10.8545
▁దేనిన	-10.8547
▁చూసుకో	-10.8547
he	-10.8554
▁కష్టమై	-10.8558
▁per	-10.8559
▁మాట్లాడండి	-10.8562
ిపోయింది	-10.8584
▁నచ్చవ	-10.8585
▁చేప	-10.8592
▁స్నేహం	-10.8594
ించాడు	-10.8622
▁జరిగి	-10.8625
▁కోర	-10.8645
▁ఏకీభవించ	-10.8649
▁plant	-10.8654
▁కోట	-10.8676
వార	-10.868
▁13	-10.8692
▁persuade	-10.8705
▁raise	-10.8705
▁ఎక్కడా	-10.8707
▁వస్తుంద	-10.8711
▁Paris	-10.8721
▁arguing	-10.8721
▁magazine	-10.8721
▁smiling	-10.8721
▁జర్మన్	-10.8721
▁పారిస్	-10.8721
▁obey	-10.8721
▁కాపాడ	-10.8721
▁తరగతుల	-10.8721
▁పొరుగువారి	-10.8721
▁హీరో	-10.8721
▁అభిమాన	-10.8721
▁ధనవంతుడిని	-10.8722
▁bedroom	-10.8722
▁కొంతకాలం	-10.8722
▁pour	-10.8723
▁మాట్లాడుతాడు	-10.8723
▁grateful	-10.8723
▁welcome	-10.8724
▁కూర్చున్నారు	-10.8725
▁చూసాడు	-10.8727
▁అడగవద్దు	-10.8727
▁retired	-10.8728
▁ద్వేషిస్తారు	-10.8728
▁ప్యాక్	-10.8729
▁burned	-10.8731
▁perfectly	-10.8735
▁చేసినట్లు	-10.8735
▁ఆపండి	-10.8736
ho	-10.8737
▁crossed	-10.8738
▁సూచిస్తున్నా	-10.874
▁నివసించాను	-10.874
▁fle	-10.8743
తాను	-10.8744
▁ప్రేమిస్తున్నార	-10.8747
▁borrowed	-10.875
▁వారంత	-10.8758
red	-10.8767
▁సన్	-10.8767
▁ప్రాణాల	-10.877
▁Of	-10.877
▁గణితం	-10.877
▁belongs	-10.8781
▁జంతువులు	-10.8795
▁నియమాలు	-10.8799
▁ఆశించ	-10.8805
▁అమ్మాయిలు	-10.8807
▁అడ్డం	-10.8815
▁నివసించే	-10.8827
▁woods	-10.8831
ig	-10.8835
▁ఎత్త	-10.8836
▁క్రీడల	-10.8847
▁కళ్ళ	-10.8853
▁వాయించ	-10.8859
▁తాగుతాడ	-10.8875
▁భాగ	-10.8876
టు	-10.8877
▁ట్రక్	-10.8886
▁క్రమం	-10.8889
ున్నారు	-10.8908
▁ము	-10.8926
▁manage	-10.8927
▁కార్	-10.8928
▁recommend	-10.893
▁attack	-10.8931
▁విడిచిపెట్టాల	-10.8932
▁హాజరు	-10.8943
▁Sorry	-10.8943
▁captain	-10.8943
▁gloves	-10.8943
▁natural	-10.8943
▁salary	-10.8943
▁కెప్టెన్	-10.8943
▁కోల్పోయాము	-10.8943
▁రిటైర్	-10.8943
▁శ్వాస	-10.8943
▁సంతోషకరమైన	-10.8943
▁coincidence	-10.8943
▁speed	-10.8943
▁పేర్కొన్నాడు	-10.8943
▁అడవుల్లో	-10.8943
▁వచ్చాము	-10.8943
▁కొంటాన	-10.8943
▁bigger	-10.8944
ినీ	-10.8949
▁ప్రయాణం	-10.8952
▁anyway	-10.8953
▁కనుగొనాలి	-10.8955
▁ముఖ్యమైనది	-10.8955
▁బలమైన	-10.8955
▁కొన్న	-10.8956
▁మాట్లాడకండి	-10.8956
▁జీవించడం	-10.8958
▁క్రా	-10.8959
▁fed	-10.8962
▁చెప్పగలను	-10.8962
▁acting	-10.8965
▁traveling	-10.8966
▁జన్మించాడు	-10.8967
▁నివసిస్తున్నార	-10.8969
▁sooner	-10.8971
▁కాళ్ళు	-10.8983
▁సెల్	-10.8983
▁తెలిసి	-10.8983
▁beard	-10.8984
▁అన్	-10.8987
▁తెలియని	-10.8997
▁ట్రక్కు	-10.9001
▁record	-10.9002
▁sc	-10.9003
▁చల్లని	-10.9005
▁తీర్చ	-10.9007
nce	-10.9009
▁చేయగలనా	-10.9018
▁ears	-10.9019
▁సహాయపడ	-10.9021
▁అభిప్రాయ	-10.9022
▁చెప్పాన	-10.9027
▁సూచించ	-10.9031
▁సందేశ	-10.9032
▁చీకటిగా	-10.904
▁ఉడికించ	-10.9042
▁wondered	-10.9045
tion	-10.9046
ిన్	-10.9048
▁తీసుకోవాల	-10.9076
▁ఒక్కరిక	-10.9092
▁వై	-10.9095
ెస్ట్	-10.9115
▁అమ్మాయిల	-10.9118
▁నొక్క	-10.9128
▁ఆహ్వాన	-10.9136
▁సముద్రం	-10.9137
▁గడిప	-10.9137
▁jokes	-10.9143
చే	-10.9145
▁ఆడాల	-10.915
ుతున్నాను	-10.9151
▁actor	-10.9153
▁అడుగుతా	-10.9159
▁జరగబోతోంద	-10.916
▁ఫలితాల	-10.917
▁Chicago	-10.9171
▁distance	-10.9171
▁excellent	-10.9171
▁swear	-10.9171
▁temperature	-10.9171
▁అతిపెద్ద	-10.9171
▁ఆత్మహత్య	-10.9171
▁తొడుగుల	-10.9171
▁ప్రభుత్వ	-10.9171
▁ఫర్నిచర్	-10.9171
▁భద్రత	-10.9171
▁twenty	-10.9171
▁పట్టించుకుంటార	-10.9171
▁స్వాగతం	-10.9171
▁నేర్చుకున్నాను	-10.9172
▁oil	-10.9172
▁దొంగిలించబడింది	-10.9172
▁useful	-10.9173
▁వేసుకున్నాడు	-10.9174
▁వదిలిపెట్టాను	-10.9175
▁confused	-10.9175
▁కోరింది	-10.9176
▁వెళ్ళారా	-10.9184
▁విలువైనది	-10.9185
మంత	-10.9185
▁Well	-10.9195
▁చేయబోతున్నారు	-10.9199
▁కప్పబడి	-10.9201
▁చేయలేన	-10.9203
ాలనుకుంటే	-10.9203
▁యుద్ధంలో	-10.9204
▁సాక్స్	-10.9207
ియర్	-10.9211
▁చెబుతాడు	-10.9215
▁చేసుకున్నాడ	-10.9218
▁భయం	-10.9236
▁వెళ్లాలి	-10.9275
గలడు	-10.9288
▁నడుపుత	-10.9302
▁facts	-10.9313
▁orange	-10.9315
▁costs	-10.9317
▁సమానం	-10.9345
▁మీలో	-10.9346
కల	-10.9352
చ్చ	-10.9356
▁ఆనంద	-10.9359
▁cause	-10.936
▁తొందరపడ	-10.9374
▁complete	-10.938
▁విషయంలో	-10.9385
▁continue	-10.9387
▁డ్ర	-10.9394
▁crowd	-10.9394
▁సన్నిహిత	-10.9397
▁మేల్కొలప	-10.9399
▁చెల్లిస్తా	-10.9403
▁drop	-10.9403
▁curious	-10.9403
▁enemies	-10.9403
▁example	-10.9403
▁furniture	-10.9403
▁group	-10.9403
▁practice	-10.9403
▁proposal	-10.9403
▁ఉష్ణోగ్రత	-10.9403
▁ప్రియుడు	-10.9403
▁వాయిదా	-10.9403
▁విరిగిన	-10.9403
▁సిఫారసు	-10.9403
▁చేస్తూ	-10.9403
▁జోకుల	-10.9403
▁middle	-10.9403
▁university	-10.9403
▁కాపీ	-10.9403
▁brave	-10.9404
▁thirsty	-10.9404
▁సంవత్సరానికి	-10.9404
▁aunt	-10.9405
▁fallen	-10.9405
▁చదివాడు	-10.9409
▁view	-10.9409
▁చదువుతాడు	-10.9411
▁చెప్పినప్పుడు	-10.9411
▁judge	-10.9412
▁పొందండి	-10.9414
▁అర్ధం	-10.9415
▁ఎక్కాడు	-10.9416
▁పెట్టారు	-10.9416
▁స్థల	-10.9416
▁పనిచేస్తుంది	-10.9417
▁విడిచిపెట్టాడు	-10.9418
▁escaped	-10.9423
▁నవ్వాడు	-10.9424
▁తీసుకోవడానికి	-10.9425
▁చేసుకోవ	-10.9427
▁బయలుదేరాను	-10.9428
▁shoulder	-10.9432
▁teaching	-10.9433
▁sp	-10.9435
▁N	-10.9438
▁నగరంలో	-10.9443
▁చూడగలను	-10.9444
▁తినండి	-10.9445
▁meaning	-10.9446
▁కొనడం	-10.9448
డిని	-10.9463
▁parked	-10.9465
▁సాగ	-10.947
▁అవకాశ	-10.9482
▁అబ్బాయిల	-10.9494
▁forest	-10.9509
▁warn	-10.9512
టన	-10.9514
▁వదిలిపెట్ట	-10.9529
ోటా	-10.9534
▁ఉండే	-10.9538
▁తల్లిని	-10.9539
▁సోదరుడిని	-10.9542
,000	-10.9544
▁సరిపోద	-10.955
▁బొమ్మల	-10.9555
▁ధనవంతుడ	-10.9569
▁మూసివేస	-10.957
S	-10.9572
న్ని	-10.9574
▁పోటీ	-10.9579
▁గెలుస్తాడ	-10.958
to	-10.9585
tor	-10.9591
ile	-10.9604
గలడ	-10.9608
▁పైన	-10.9629
▁condition	-10.9629
▁allergi	-10.964
ద్రోహం	-10.9641
▁Friday	-10.9641
▁current	-10.9641
▁delicious	-10.9641
▁invitation	-10.9641
▁memory	-10.9641
▁mirror	-10.9641
▁neither	-10.9641
▁supper	-10.9641
▁గడ్డి	-10.9641
▁తాజా	-10.9641
▁ప్రేమిస్తారు	-10.9641
▁రంధ్రం	-10.9641
▁విషం	-10.9641
▁శుక్రవారం	-10.9641
▁iron	-10.9641
▁అసహ్యించుకున్నా	-10.9641
▁మరికొం	-10.9641
▁డ్రాయర్	-10.9641
▁government	-10.9641
▁coward	-10.9641
▁eventually	-10.9641
▁everywhere	-10.9641
▁లైన్	-10.9642
▁పట్టుకున్నాను	-10.9643
▁adopted	-10.9643
▁drawer	-10.9644
▁gate	-10.9645
▁huge	-10.9645
▁వస్తాము	-10.9645
▁మూలలో	-10.9646
▁shocked	-10.9648
▁నోరు	-10.9648
▁కుమారుడు	-10.9648
▁talented	-10.9648
▁పరిమాణం	-10.9652
▁power	-10.9652
▁అడగాలి	-10.9657
▁పరీక్షల	-10.9659
▁పెట్టడం	-10.9659
▁options	-10.9659
▁ఉంచారు	-10.9659
▁step	-10.9662
▁guests	-10.9666
▁సిగ్గుపడ	-10.9666
▁accepted	-10.9667
▁fighting	-10.9667
▁పిల్లవాడిని	-10.9668
▁వాక్యం	-10.9668
ప్పటి	-10.9669
▁భయపడుతున్నాడ	-10.967
▁వదిలివేస	-10.9674
ally	-10.9675
▁చెప్పరు	-10.9685
▁పువ్వు	-10.9685
▁పాడాడు	-10.9687
▁స్నేహితులతో	-10.9687
▁కాలేద	-10.971
▁మెడ	-10.9711
▁badly	-10.9717
▁తినడు	-10.9723
▁చేయాలా	-10.9728
▁cute	-10.9755
▁చ	-10.9758
▁ఉండవచ్చ	-10.9765
▁ప్రతిచ	-10.9767
▁దుకాణ	-10.9774
▁teachers	-10.9777
▁sons	-10.9788
▁page	-10.9796
ానో	-10.9811
కోసం	-10.9818
▁నిర్వహించ	-10.9822
రం	-10.9824
ince	-10.9825
▁మానేయ	-10.9827
ండ్	-10.9831
▁చేత	-10.9832
▁నిద్రలో	-10.9843
▁పురుషుల	-10.9852
▁disagree	-10.9868
▁share	-10.9869
▁lift	-10.9873
▁కార్డు	-10.9875
▁ఉన్నాడా	-10.9877
ge	-10.9878
▁సాధారణం	-10.9878
▁మరే	-10.9883
త్తత	-10.9885
▁Saturday	-10.9885
▁advantage	-10.9885
▁alarm	-10.9885
▁bomb	-10.9885
▁cheese	-10.9885
▁damage	-10.9885
▁horrible	-10.9885
▁public	-10.9885
▁relationship	-10.9885
▁similar	-10.9885
▁గోధుమ	-10.9885
▁ప్రతిసారీ	-10.9885
▁రాజధాని	-10.9885
▁విద్య	-10.9885
▁అద్దం	-10.9885
▁పర్సు	-10.9885
▁Help	-10.9885
▁బుక్	-10.9885
▁మూసివేయబడింది	-10.9888
▁చిన్నవారు	-10.9889
▁సమయాలలో	-10.989
▁సరిపోతుంది	-10.989
▁ఆటగాడు	-10.9895
▁మాజీ	-10.9895
▁పంపండి	-10.9896
▁staring	-10.9898
▁రసం	-10.99
▁పిలవలేదు	-10.99
▁continued	-10.9902
▁complained	-10.9904
▁అడగడం	-10.9905
యో	-10.9926
▁కుక్	-10.9939
బో	-10.995
▁పి	-10.9968
▁కొన్నార	-10.9969
▁ఆలోచనలు	-10.9976
▁ఉత్సాహం	-10.9979
▁గొడవ	-10.9985
▁కావు	-10.9986
▁ఎత్తైన	-10.9991
▁నమ్ముతాడ	-11.0003
▁అత్యవసర	-11.0007
▁గుర్తించలేద	-11.0012
▁వదులుకో	-11.0015
సా	-11.0029
▁వివాహ	-11.004
▁అప	-11.004
sh	-11.0042
▁demand	-11.0045
బడ్డాడు	-11.0047
▁neighbor	-11.0047
▁నగర	-11.0063
▁Sundays	-11.0067
▁న్యాయవాదిని	-11.0076
2	-11.0083
▁రాజకీయ	-11.0091
▁నచ్చింద	-11.01
▁గమనించార	-11.0105
▁ప్రవేశ	-11.0117
▁translate	-11.0119
రీ	-11.0122
▁concern	-11.0123
▁mention	-11.0124
▁కఠిన	-11.0124
▁నిన్నటి	-11.0128
▁quick	-11.0129
▁తిప్ప	-11.0131
j	-11.0131
▁sharp	-11.0134
▁behavior	-11.0135
▁examination	-11.0135
▁illegal	-11.0135
▁తమాషా	-11.0135
▁తెలిస్తే	-11.0135
▁సిబ్బంది	-11.0135
▁సౌకర్యం	-11.0135
▁flat	-11.0135
▁kidding	-11.0135
▁unusual	-11.0135
▁అవసరమైతే	-11.0135
▁lay	-11.0135
▁పోస్ట్	-11.0135
▁Alice	-11.0135
▁జరిగితే	-11.0135
▁stone	-11.0135
▁గేట్	-11.0136
▁చిన్నపిల్ల	-11.0136
▁భావన	-11.0136
▁చంపబడ్డాడు	-11.0136
▁మానేశాడు	-11.0136
▁చేతుల్లో	-11.0136
▁పెరిగింది	-11.0136
▁బాగున్నాను	-11.0137
▁భూకంపం	-11.0137
▁వచ్చినందుకు	-11.0137
▁నిద్రపోయాను	-11.0138
▁nearest	-11.0139
▁మరొకటి	-11.014
▁చేసినప్పుడు	-11.0142
▁అనుకుంటా	-11.0143
▁మూసుకుని	-11.0143
▁పెట్టుకున్నాడు	-11.0144
▁సన్నగా	-11.0144
▁చేయవలసి	-11.0147
▁treated	-11.0147
▁పొందాను	-11.0147
▁పోరాటం	-11.0148
▁యాదృచ్చికం	-11.0149
▁రక్తం	-11.015
▁ధరించడం	-11.0154
▁ఫలితం	-11.0155
▁చేయలేకపోయాడు	-11.0158
▁ఎంతసేపు	-11.0159
▁చెందాను	-11.0163
▁మాట్లాడుతున్న	-11.0169
▁భాషలు	-11.0184
లేదా	-11.0186
▁రోగి	-11.0191
▁ఉన్నామ	-11.0192
▁ఉండడం	-11.0193
▁po	-11.0203
క్స్	-11.0207
▁చంపాడు	-11.0211
బోతోంది	-11.0212
ీస్	-11.0212
ba	-11.0223
▁నదిలో	-11.0258
▁చేయలేడ	-11.0262
▁టీవీలో	-11.0268
▁area	-11.0276
▁భవనంలో	-11.0277
▁చదివార	-11.0291
▁కుకీల	-11.0295
▁ఎక్కడిక	-11.0296
▁గులాబీల	-11.03
▁photo	-11.0302
▁స్త్రీ	-11.0322
▁నెట్ట	-11.0327
▁అమ్మాయిని	-11.0327
wore	-11.0328
▁నావి	-11.033
▁పాల్గొన	-11.0338
▁మీర	-11.0345
▁వాల	-11.0353
▁చిత్రాల	-11.0357
▁horses	-11.0363
న్నది	-11.0364
▁treat	-11.0376
▁నేర్పించాడ	-11.0376
▁walks	-11.0389
▁match	-11.039
▁ఉపయోగకర	-11.0392
▁ఉల్ల	-11.0392
▁article	-11.0392
▁expert	-11.0392
▁midnight	-11.0392
▁system	-11.0392
▁themselves	-11.0392
▁అభిరుచి	-11.0392
▁జనాభా	-11.0392
▁పోస్టాఫీసు	-11.0392
▁ప్యాంటు	-11.0392
▁బియ్యం	-11.0392
▁శనివారం	-11.0392
▁Sometimes	-11.0392
▁అధ్యక్షుడు	-11.0392
▁ఆలిస్	-11.0392
▁కుర్రాడు	-11.0392
▁blanket	-11.0392
▁dare	-11.0392
▁interrupt	-11.0392
▁ఆత్మ	-11.0392
▁above	-11.0392
▁అలసిపోయినట్లు	-11.0392
▁artist	-11.0392
▁winning	-11.0392
▁planned	-11.0392
▁musician	-11.0392
▁wet	-11.0393
▁హాని	-11.0393
▁couch	-11.0393
లమీద	-11.0394
▁denied	-11.0394
▁చదువుకోవ	-11.0395
▁వ్యక్తిగతంగా	-11.0396
▁ఉడికించాలి	-11.0397
▁దొరికింది	-11.0398
▁scare	-11.0398
▁wounded	-11.04
▁తీసుకోవడం	-11.0402
▁jumped	-11.0404
▁పరిగెత్తాడు	-11.0404
▁చేసుకోవడానికి	-11.0404
▁రాశారు	-11.0405
▁తెచ్చాడు	-11.0405
▁ఇస్తాడు	-11.0405
▁ప్రయత్నించలేదు	-11.0407
▁చేయనివ్వండి	-11.0408
▁వెళ్తున్నాము	-11.0408
▁ప్రయత్నించడం	-11.0408
▁అడగవచ్చ	-11.041
▁ఆడుతున్నారు	-11.0412
▁అలాంటిదే	-11.0415
▁బస్	-11.0417
▁పాతది	-11.0423
▁కష్టమని	-11.0424
▁తినాలి	-11.0425
▁వేరు	-11.0426
▁మి	-11.0432
▁Fi	-11.0434
▁signed	-11.0435
▁అవమానించ	-11.0436
▁శత్రువులు	-11.0436
▁నిబంధనల	-11.0436
▁జంతువు	-11.0436
▁రాడు	-11.0452
▁చూసే	-11.0461
▁దొంగిలించ	-11.0465
కం	-11.0471
▁due	-11.0497
▁తీసి	-11.051
▁అనారోగ్య	-11.0523
▁సూచన	-11.0525
▁Se	-11.0533
▁నిద్రపోవ	-11.0534
చి	-11.0534
▁గురయ్యాడ	-11.0537
▁బాధపడ్డా	-11.054
▁పేపర్	-11.0544
ped	-11.0547
తాయి	-11.0552
▁ear	-11.0562
▁habit	-11.0565
▁భావిస్తున్నార	-11.0566
లర్	-11.0571
▁farm	-11.0574
వర్	-11.0577
▁మంద	-11.0584
ling	-11.0586
▁గాయపడ్డాడ	-11.059
▁చేయబోతున్నాడ	-11.0594
▁diet	-11.0596
▁skirt	-11.0598
▁అడవి	-11.0598
▁చేయనివ్వ	-11.0603
ill	-11.0604
ుకుందాం	-11.0605
▁నిద్రపోతున్నాడ	-11.0618
▁స్ట	-11.0618
▁కలుస్తా	-11.062
▁ఆకాశం	-11.063
▁jump	-11.0633
▁burn	-11.0633
▁కాగిత	-11.0636
▁పార్కు	-11.0637
▁behave	-11.0638
▁రక్త	-11.064
▁ప్రారంభం	-11.0643
▁చైనా	-11.0645
▁engine	-11.0646
▁కడగ	-11.0647
nfortunately	-11.0652
▁పుష్	-11.0654
▁harm	-11.0654
▁courage	-11.0655
▁intelligent	-11.0655
▁picnic	-11.0655
▁strict	-11.0655
▁ఎయిర్	-11.0655
▁దక్షిణ	-11.0655
▁దురదృష్టవశాత్తు	-11.0655
▁math	-11.0655
▁గ్లాసెస్	-11.0655
▁పాదాల	-11.0655
▁పొలం	-11.0655
▁human	-11.0655
▁డైరీ	-11.0655
▁dry	-11.0655
▁ఆంగ్లంలో	-11.0655
▁నీలి	-11.0656
▁ముద్దాడ	-11.0656
▁జంట	-11.0656
▁వెళ్తున్నారు	-11.0656
▁sand	-11.0657
▁గుండె	-11.0657
▁నృత్యం	-11.0658
▁baked	-11.0658
▁కాకుండా	-11.0659
1	-11.0659
▁ఏవ	-11.0661
▁మ్యూజియం	-11.0663
▁నేర్చుకోవాలి	-11.0663
▁తినాల	-11.0664
▁shorter	-11.0665
▁By	-11.0665
▁reasonable	-11.0666
▁గెలవలేద	-11.0668
▁attacked	-11.0669
▁ఆగ	-11.067
▁growing	-11.0671
▁చేయగలరు	-11.0674
▁suggested	-11.0675
▁ఆడుతున్నాడు	-11.0676
వర్డ్	-11.0682
▁సైట్	-11.0682
▁వివరించాడు	-11.0689
▁అక్షరాల	-11.0693
▁ఉదాహరణ	-11.0695
▁2:	-11.0703
▁తెల్లగా	-11.0708
line	-11.0731
▁paying	-11.0735
▁toward	-11.0738
▁ఆపలే	-11.0739
ather	-11.0741
▁ఎంపికల	-11.0741
▁rained	-11.0743
టన్	-11.0754
▁ఉంచుతా	-11.076
▁నిద్రించ	-11.0761
▁drives	-11.0765
▁hurts	-11.0768
▁చెందుతున్నాన	-11.0798
▁పువ్వుల	-11.0809
▁సరళ	-11.0824
▁బి	-11.0832
▁poem	-11.0835
ac	-11.0836
▁finger	-11.0836
▁వారంలో	-11.086
ca	-11.0866
▁నేర్చుకుంటున్నా	-11.0882
ుడ	-11.0883
నందుకు	-11.0907
▁charge	-11.0909
▁నిరాకరించ	-11.0911
బడ్డా	-11.0912
▁fail	-11.0913
▁shoot	-11.0917
▁పండు	-11.0924
▁చౌక	-11.0925
▁ప్రమాదకరమ	-11.0925
కముంద	-11.0925
▁ఇసుక	-11.0925
▁burst	-11.0925
▁అంగీకరిస్తార	-11.0925
▁అంతరాయం	-11.0925
▁క్లాసులో	-11.0925
▁నవ్వుతూ	-11.0925
▁రుజువు	-11.0925
▁విజయవంతం	-11.0925
▁సామాను	-11.0925
▁assume	-11.0925
▁tough	-11.0925
▁పెంపు	-11.0925
▁గాయకుడు	-11.0925
▁అర్థమైంది	-11.0925
▁blew	-11.0925
▁space	-11.0925
▁diary	-11.0925
▁hugged	-11.0925
▁pale	-11.0926
▁drowned	-11.0926
▁చెబుతాను	-11.0926
▁sort	-11.0926
▁వెలిగించ	-11.0927
▁భుజం	-11.0927
▁ఉద్యోగాల	-11.0927
▁పిక్	-11.0927
▁పాత్ర	-11.0928
▁పడిపోయింది	-11.0929
▁ఒక్కసారి	-11.093
▁చెప్పగలరు	-11.093
▁పెరిగాడు	-11.0931
▁పంది	-11.0936
▁murdered	-11.0943
▁clearly	-11.0944
త్రాగి	-11.0944
▁sale	-11.0944
▁noon	-11.0946
▁చూస్తారు	-11.0946
▁writer	-11.0952
▁గూ	-11.0952
▁పాల	-11.0953
▁checked	-11.0955
▁hill	-11.0957
▁తినను	-11.0959
▁బయలుదేరింది	-11.096
▁ఫ్లా	-11.0961
▁బా	-11.0966
▁ప్రతిదానిక	-11.0973
▁విధి	-11.0977
▁cooked	-11.0981
▁గెలిచే	-11.1
▁వెళుతున్నాన	-11.1005
▁రాలేద	-11.1017
▁12	-11.1021
ock	-11.1026
ice	-11.1038
▁hearing	-11.1041
▁గంటలో	-11.1045
▁ముఖ	-11.1052
▁సిగ్గుపడుతున్నా	-11.106
▁Hol	-11.1061
▁అయ్యా	-11.1061
▁పడి	-11.1088
▁చెల్లించా	-11.1093
▁చేయలేకపోయా	-11.1098
▁నచ్చ	-11.111
▁member	-11.1114
▁అప్	-11.1116
▁పత్రిక	-11.1122
▁smells	-11.1127
▁లక్ష్యం	-11.1142
▁అద్దాల	-11.1143
బడుతుంది	-11.1177
▁సులభ	-11.118
▁suppose	-11.1187
▁impress	-11.1188
▁disappoint	-11.119
▁repair	-11.119
▁ruin	-11.119
▁సందర్శిస్తా	-11.1197
▁wise	-11.1201
▁చెవి	-11.1202
▁accustom	-11.1203
▁childhood	-11.1203
▁diamond	-11.1203
▁jeans	-11.1203
▁passengers	-11.1203
▁related	-11.1203
▁silence	-11.1203
▁video	-11.1203
▁అర్హత	-11.1203
▁గమనిక	-11.1203
▁చికాగో	-11.1203
▁చికెన్	-11.1203
▁జున్ను	-11.1203
▁జ్వరం	-11.1203
▁డౌన్	-11.1203
▁తప్పనిసరి	-11.1203
▁నలభై	-11.1203
▁ప్రైవేట్	-11.1203
▁బాయ్	-11.1203
▁బుల్లెట్	-11.1203
▁బూడిద	-11.1203
▁వీడియో	-11.1203
▁సీసాల	-11.1203
▁season	-11.1203
▁కారణాల	-11.1203
▁ప్రకటించ	-11.1203
▁humor	-11.1203
▁deny	-11.1203
▁exchange	-11.1203
▁patience	-11.1203
▁పైలట్	-11.1203
▁begun	-11.1203
▁Good	-11.1203
▁ఆగిపోయింది	-11.1203
▁మరోసారి	-11.1203
▁liar	-11.1203
▁fever	-11.1204
▁someday	-11.1204
▁ఏమైంది	-11.1204
▁నిలబడ్డాడు	-11.1205
▁లేత	-11.1205
▁వెన్న	-11.1205
ైంది	-11.1206
▁వదిలేయండి	-11.1206
▁కోరుకున్నారు	-11.1206
▁కుమారులు	-11.1207
▁teaches	-11.1208
▁గ్రహించాడు	-11.1208
▁ప్రయత్నం	-11.1209
▁200	-11.121
▁ఆశ్చర్యపోలేదు	-11.121
▁విసిగిపోయాను	-11.1211
▁వాదించడం	-11.1211
▁lower	-11.1212
▁మాట్లాడుతుంది	-11.1212
ిక్	-11.1214
▁ప్రేమిస్తుంద	-11.1215
▁బహుమతులు	-11.1219
▁pushed	-11.122
▁అన్నాడు	-11.1223
▁persuaded	-11.1224
▁తొలగించారు	-11.1227
▁పర్వతాల	-11.1231
తా	-11.1232
▁miles	-11.1234
▁కనిపించే	-11.1235
▁చెప్పినవ	-11.1239
▁force	-11.1241
▁touched	-11.1254
▁అడవిలో	-11.1263
▁చేయడాన	-11.1265
బోతున్నాం	-11.127
▁గడపాల	-11.1272
తాడు	-11.1273
▁ఎవ్వర	-11.1285
ుతున్న	-11.1289
▁చెప్పడు	-11.1291
▁Mak	-11.1294
▁కుటుంబంలో	-11.1299
▁ఉపయోగిస్తున్నార	-11.1303
ుకుంటుంది	-11.1305
▁నివసించాడ	-11.1311
లేని	-11.1325
▁mountains	-11.1388
▁bite	-11.1392
▁కూరగాయల	-11.14
▁rose	-11.14
ిద్దాం	-11.1412
ుల	-11.1418
రణ	-11.142
No	-11.1421
▁అవుతాడ	-11.1428
ెట్	-11.1436
▁పడ్డా	-11.144
ious	-11.1441
▁కలిశా	-11.1441
▁సహజ	-11.1443
తారు	-11.1449
ame	-11.1452
ేవాడిని	-11.1462
▁దుకాణం	-11.1467
▁స్టేట్స్	-11.147
▁ignore	-11.1477
▁బాంబు	-11.1484
▁విస్మరించ	-11.1485
▁thin	-11.1487
▁Canada	-11.1488
▁brown	-11.1488
▁nurse	-11.1488
▁pilot	-11.1488
▁reply	-11.1488
▁suspicious	-11.1488
▁ఉత్పత్తి	-11.1488
▁ప్రాజెక్ట్	-11.1488
▁హృదయపూర్వక	-11.1488
▁Speak	-11.1488
▁ఇంజిన్	-11.1488
▁ప్రయాణికుల	-11.1488
▁theory	-11.1489
▁రకం	-11.1489
▁Writ	-11.1489
▁హార్డ్	-11.1489
▁తెలివితక్కువదని	-11.149
▁రాకముంద	-11.149
▁కలప	-11.1491
▁betrayed	-11.1492
▁కోల్పోతాను	-11.1493
▁army	-11.1496
▁తీసుకెళ్లండి	-11.1498
▁personal	-11.1499
▁నీళ్ళు	-11.1499
▁proof	-11.1499
do	-11.1502
▁candy	-11.1504
▁పనిచేస్తున్నాడు	-11.1505
▁అలారం	-11.1505
▁యోచిస్తున్నాడు	-11.1506
▁పిలవడం	-11.1507
uit	-11.1508
▁కనుగొన్నారా	-11.1509
▁చట్టం	-11.1512
▁రుణం	-11.1513
రుస	-11.1516
▁తెచ్చా	-11.1516
▁considered	-11.1517
▁pond	-11.1517
▁నమ్మడు	-11.1518
▁నమ్ముతారు	-11.1519
▁నీటితో	-11.152
రంగా	-11.152
▁తాగాను	-11.1521
▁ఒప్పించాడు	-11.1523
▁కొనలేదు	-11.1523
▁cleaning	-11.1524
▁దొంగిలించారు	-11.1525
▁చూడవచ్చు	-11.1526
▁snowing	-11.1536
▁నిరాశపరచ	-11.1539
▁ప్రయత్నించారు	-11.154
▁ధనవంతులు	-11.1544
▁w	-11.1546
▁మానేయాల	-11.1552
నిక్	-11.1554
▁ఉంటుందో	-11.1558
▁సె	-11.1569
▁వెతక	-11.1573
▁మాట్లాడరు	-11.1575
▁roses	-11.1578
▁ఏడవ	-11.158
▁matters	-11.1589
▁సాధ్యమేన	-11.159
ఖ	-11.1592
most	-11.1605
రే	-11.1606
▁క్షమాపణల	-11.1609
ical	-11.1622
▁పాఠ	-11.1625
▁tend	-11.1629
▁planet	-11.1637
▁విధించ	-11.1646
▁స్వ	-11.1652
▁సెట్	-11.1664
▁మిలియన్	-11.1674
▁చల్ల	-11.1675
ుకుంటాడు	-11.1677
▁di	-11.1677
▁వివరిస్తా	-11.1685
▁animal	-11.1695
▁పేజీ	-11.17
▁పాముల	-11.1711
▁చేయలేద	-11.1715
ure	-11.1718
▁mess	-11.1727
▁వంటగది	-11.1733
▁runs	-11.1733
▁హృదయ	-11.1744
▁పొడి	-11.1749
▁చూసుకుంట	-11.1751
▁సోదరిని	-11.1752
▁పునరావృత	-11.1753
ుడ్	-11.1755
▁answers	-11.1757
ack	-11.1765
ite	-11.1769
▁hug	-11.1778
▁షాట్	-11.1778
▁boil	-11.1783
▁stomach	-11.1783
▁చెమట	-11.1783
▁Water	-11.1783
▁appointment	-11.1783
▁castle	-11.1783
▁complicated	-11.1783
▁field	-11.1783
▁funeral	-11.1783
▁involved	-11.1783
▁opportunity	-11.1783
▁refrigerator	-11.1783
▁throat	-11.1783
▁అంత్యక్రియల	-11.1783
▁ఉమ్మడి	-11.1783
▁ఓపిక	-11.1783
▁కడుపు	-11.1783
▁కోరిక	-11.1783
▁చికిత్స	-11.1783
▁ఫ్యాషన్	-11.1783
▁యూర	-11.1783
▁రిఫ్రిజిరేటర్	-11.1783
▁వ్యాసం	-11.1783
▁స్వెటర్	-11.1783
స్పోర్ట్	-11.1783
▁పట్టిక	-11.1783
▁వృద్ధుడు	-11.1783
▁assistant	-11.1783
▁ఎగర	-11.1783
▁guard	-11.1783
▁committed	-11.1783
▁స్వరం	-11.1783
▁క్యాంప	-11.1783
▁copy	-11.1784
▁exercise	-11.1784
▁పంపుతా	-11.1784
▁నమ్ముతున్నార	-11.1785
▁గ్రహం	-11.1785
▁చూసినప్పుడు	-11.1786
▁destroyed	-11.1786
▁దాక్కున్నాడు	-11.1787
▁కొనసాగింది	-11.1787
▁బయలుదేరుతుంది	-11.1787
ందని	-11.179
▁War	-11.179
▁ఆహ్వానించారు	-11.1791
▁బృందం	-11.1792
▁doors	-11.1794
▁కనుగొనలేకపోయాడు	-11.1794
▁ప్రమాదకరమైన	-11.1795
▁ఆపాలి	-11.1796
▁చర్చల	-11.18
▁బంగారం	-11.18
▁శాంతించ	-11.1801
▁నమ్మడం	-11.1802
▁ఆలోచించలేదు	-11.1802
▁గర్వపడుతున్నాను	-11.1802
▁Wh	-11.1804
▁ignored	-11.1806
▁ప్రవేశించాడు	-11.1806
▁కలవలేదు	-11.1808
▁అమెరికాలో	-11.1815
▁దెయ్యాల	-11.1816
▁పోయింది	-11.1816
▁దుకాణంలో	-11.1818
▁అమ్మక	-11.1824
▁విలువైన	-11.1827
▁board	-11.1831
▁ఉండరు	-11.1839
▁stamps	-11.184
▁ghosts	-11.1842
▁using	-11.1846
▁చర్చ	-11.1848
▁ఉత్తర	-11.1855
▁క్ర	-11.1857
▁వెళ్లే	-11.1864
▁మేక	-11.1866
▁friendly	-11.1867
▁mo	-11.1867
▁అట	-11.1873
▁వండ	-11.1883
బోతున్నారా	-11.1884
▁మనల	-11.1888
▁హాస్యం	-11.1891
▁నోట్	-11.1899
▁క్షమించు	-11.193
▁కనుగొనలేకపోయా	-11.1931
▁నిరాశకు	-11.1932
ినట్లయితే	-11.1941
▁క్యాబ	-11.195
తెలివితక్కువవారు	-11.1952
ారం	-11.1955
కాలం	-11.1958
▁డిమాండ్	-11.196
▁అర	-11.1974
uck	-11.1994
▁చేశా	-11.1996
▁కేసు	-11.1998
▁ski	-11.2011
▁గెలవలేడ	-11.2015
▁పార	-11.2017
coming	-11.2018
▁విచిత్రమైన	-11.2023
▁spends	-11.2029
:00	-11.203
▁దేనిక	-11.2042
▁బాధపడ	-11.2044
▁గ్ర	-11.2045
▁భయపడ్డాడ	-11.2045
ach	-11.205
ేవారు	-11.2052
▁పనిచేస్తా	-11.2053
▁యోచిస్తున్న	-11.2058
▁చదివిన	-11.2066
ome	-11.2073
▁చేయబడింద	-11.2076
▁express	-11.2078
▁టవ	-11.2084
▁breathe	-11.2084
▁విడుదల	-11.2086
▁నగ్నం	-11.2086
ుబాటు	-11.2086
▁airplane	-11.2086
▁conversation	-11.2086
▁criminal	-11.2086
▁disease	-11.2086
▁energy	-11.2086
▁engaged	-11.2086
▁nodded	-11.2086
▁respond	-11.2086
▁responsible	-11.2086
▁stairs	-11.2086
▁sweet	-11.2086
▁switch	-11.2086
▁tongue	-11.2086
▁అర్థమైందా	-11.2086
▁గెలుస్తుంద	-11.2086
▁తెలుపు	-11.2086
▁థియేటర్	-11.2086
▁నర్సు	-11.2086
▁నిజానికి	-11.2086
▁పసుపు	-11.2086
▁పొడవాటి	-11.2086
▁రాజీనామా	-11.2086
▁వస్తే	-11.2086
▁విరమణ	-11.2086
▁సమాధానాల	-11.2086
▁హాస్యాస్పద	-11.2086
▁Tomorrow	-11.2086
▁factory	-11.2086
▁nuts	-11.2086
▁స్టాంపుల	-11.2086
▁మామూలు	-11.2086
▁basement	-11.2086
▁clever	-11.2086
▁simply	-11.2086
▁main	-11.2086
▁బ్రష్	-11.2086
▁Find	-11.2086
▁Time	-11.2087
▁plu	-11.2087
▁గాయపడ్డారు	-11.2088
▁రోడ్డు	-11.2088
▁వ్రాస్తాను	-11.2088
▁ప్రస్తుతానికి	-11.2089
▁తిన్నారా	-11.2089
▁వెళ్ళినప్పుడు	-11.2089
▁ప్రమాదకరమైనది	-11.209
▁కోరుకుంటున్నారో	-11.2091
▁శీతాకాలం	-11.2091
▁చూస్తాడు	-11.2092
▁చూస్తే	-11.2092
▁forty	-11.2093
▁కలిగిస్తుంది	-11.2093
▁పరిగెత్తాను	-11.2093
▁వదిలేశా	-11.2093
▁canceled	-11.2095
▁బాగున్నార	-11.2096
▁అవుతాను	-11.2096
▁సమ	-11.2098
▁కనిపించలేదు	-11.2099
▁చేయాలనుకున్నాను	-11.2099
▁ఆలోచిస్తాను	-11.21
▁ముక్కలు	-11.21
▁concerned	-11.2101
▁వసంతకాలం	-11.2101
▁holding	-11.2101
▁ఇష్టపడుతున్నారా	-11.2102
▁workers	-11.2102
▁కట్	-11.2104
▁పనిచేయదు	-11.2105
▁చర్య	-11.2108
▁claims	-11.211
▁following	-11.2111
కీ	-11.2115
▁పూల	-11.2123
▁traveled	-11.2126
▁టోక్యోలో	-11.2128
య్య	-11.2129
▁పిలిచారు	-11.2129
▁చంపారు	-11.2132
▁ఆకట్టుకోవ	-11.2136
▁snakes	-11.2136
▁శాస్త్రవేత్త	-11.2139
▁జీవన	-11.2143
▁వెళ్లవద్ద	-11.2168
▁తాగను	-11.2171
▁పంపించ	-11.218
▁dreams	-11.2184
▁hoped	-11.2194
▁jobs	-11.2202
▁అద్భుతం	-11.2209
▁అత	-11.2218
స్తాడు	-11.2221
▁సంవత్సరంలో	-11.2247
▁వెళ్లనివ్వ	-11.2248
▁పనిచేసే	-11.2256
▁లేచాడ	-11.2257
జర్	-11.2268
▁చనిపోవ	-11.2283
▁వార్తల	-11.229
స్తోంది	-11.2292
▁చూసుకున్నా	-11.23
king	-11.2304
▁holiday	-11.2308
▁weapon	-11.2309
▁detail	-11.231
▁Sha	-11.2328
▁arms	-11.2336
▁ఎలుక	-11.2338
▁పిల్లుల	-11.2338
▁add	-11.2341
way	-11.2361
▁స్పందించ	-11.2362
▁చదవాల	-11.2363
▁Ac	-11.2366
▁ఉచితం	-11.2368
▁prices	-11.2373
▁relax	-11.2376
▁వింటా	-11.2377
▁జర్మనీ	-11.238
▁కిడ్నాప	-11.2382
ard	-11.2383
▁ఆకుల	-11.2393
▁వదల	-11.2394
▁entire	-11.2395
▁ఓడిపోయ	-11.2396
▁వేట	-11.2398
▁amazing	-11.2398
▁climate	-11.2398
▁deaf	-11.2398
▁envelope	-11.2398
▁familiar	-11.2398
▁fifteen	-11.2398
▁hobby	-11.2398
▁local	-11.2398
▁motorcycle	-11.2398
▁saving	-11.2398
▁website	-11.2398
▁అనుమానాస్పద	-11.2398
▁కార్మికుల	-11.2398
▁ద్వేషించ	-11.2398
▁నటుడు	-11.2398
▁ప్రేక్షకుల	-11.2398
▁వేరుశెనగ	-11.2398
▁సంభాషణ	-11.2398
▁స్పీకర్	-11.2398
▁దుప్పటి	-11.2398
▁slipped	-11.2398
▁yellow	-11.2398
▁attractive	-11.2398
▁theater	-11.2398
▁ఉన్నాం	-11.2399
▁చేయాలనుకోలేదు	-11.2399
▁అనుకోకుండా	-11.2399
▁కోల్పోయింది	-11.2399
▁వెళ్తున్నారా	-11.2399
▁నిలబడలేను	-11.24
▁వ్యాయామం	-11.24
మో	-11.24
▁బాధిస్తుంది	-11.24
▁తాకవద్దు	-11.2401
▁carried	-11.2402
▁manager	-11.2402
▁లాంటిది	-11.2402
▁పున	-11.2406
▁ఏర్పాటు	-11.2407
▁మాట్లాడగలనా	-11.2408
▁చూస్తున్నాడ	-11.2409
▁గెలవగలడ	-11.241
▁విమానాశ్రయంలో	-11.2411
▁తెరవండి	-11.2412
▁largest	-11.2413
ాలనుకుంటున్నార	-11.2417
ట్టింపు	-11.2417
▁అంగీకరించారు	-11.242
▁కొట్టారు	-11.2421
▁butter	-11.2424
▁వేస్తున్నాన	-11.2424
▁నేరం	-11.2428
▁చనిపోయిన	-11.2431
▁voted	-11.2433
go	-11.244
▁kissing	-11.2443
▁reads	-11.2449
▁సిగరెట్	-11.2449
▁solved	-11.245
▁అవుతాడు	-11.2465
▁నగరాల	-11.2475
▁మాట్లాడను	-11.2477
▁ప్రకటన	-11.2479
▁వెళ్లవద్దు	-11.248
▁జీవిస్తున్నా	-11.2489
పెట్	-11.2489
▁అడగాల	-11.2493
▁ఉండబోతున్నా	-11.2515
▁ఇవ్వమ	-11.2519
▁oranges	-11.2519
యన్	-11.2522
▁ho	-11.2529
▁మరచిపోయాన	-11.2531
▁నడిచ	-11.2533
▁గర్వ	-11.2539
hes	-11.2545
▁అరిచా	-11.2548
▁వివర	-11.2554
▁బ్యాంక	-11.2582
▁పెట్టుకో	-11.2585
▁lies	-11.2591
▁సంతోషించ	-11.2594
rs	-11.26
స్టర్	-11.2603
▁belong	-11.262
▁హెచ్చరించ	-11.2625
▁cousin	-11.2631
▁సీట్ల	-11.2638
▁రూప	-11.2643
▁ప్రాణ	-11.2649
పాటు	-11.2653
▁కష్ట	-11.2659
▁finding	-11.2663
▁మిఠాయి	-11.2666
▁అప్పటి	-11.267
▁పొరపాటున	-11.2681
▁నిజాయితీ	-11.2687
▁భావిస్తున్నాడ	-11.269
▁చెబుతాడ	-11.2699
▁require	-11.2704
ga	-11.2706
▁collect	-11.2707
▁poison	-11.2708
▁వెళ్ళు	-11.2708
▁తీవ్ర	-11.2713
▁Mondays	-11.2716
▁తెలుసుకోవలసిన	-11.2716
▁intention	-11.2721
▁hung	-11.2721
▁bullet	-11.2721
▁attempt	-11.2721
స్మార	-11.2721
▁Listen	-11.2721
▁credit	-11.2721
▁dentist	-11.2721
▁downstairs	-11.2721
▁garage	-11.2721
▁naked	-11.2721
▁purse	-11.2721
▁unexpected	-11.2721
▁ఆసన్నమైంద	-11.2721
▁ఇంకెవర	-11.2721
▁క్రెడిట్	-11.2721
▁నకిలీ	-11.2721
▁నియంత్రణ	-11.2721
▁పారిపోయాడు	-11.2721
▁బహిరంగ	-11.2721
▁మొత్తాన్ని	-11.2721
▁స్ట్రీట్	-11.2721
▁depressed	-11.2721
▁మాదిరిగా	-11.2721
▁sunglasses	-11.2721
▁పేలుడు	-11.2721
▁గాయమైంది	-11.2721
▁prize	-11.2721
▁ఆదేశాల	-11.2721
▁అదృష్టవంతుడిని	-11.2721
▁cave	-11.2721
▁failure	-11.2721
▁పదవీ	-11.2721
▁further	-11.2721
▁safety	-11.2721
▁ప్రయోజనం	-11.2721
▁చనిపోయే	-11.2721
▁యవ్వనంగా	-11.2721
▁center	-11.2722
▁wealthy	-11.2722
▁కోరుకుంటే	-11.2722
▁చేస్తున్నప్పుడు	-11.2722
▁వీడ	-11.2722
▁Mother	-11.2722
▁అంటారు	-11.2722
▁toilet	-11.2723
▁నడుస్తాడు	-11.2725
▁కూర్చోండి	-11.2725
బుల్	-11.2725
▁abandoned	-11.2725
▁కష్టపడ్డాడు	-11.2725
▁knocked	-11.2727
abbed	-11.2728
▁అనుకుంటారు	-11.2728
▁వెతుకుతున్నది	-11.273
▁వెళ్తున్నాడ	-11.2734
▁గుర్తించాను	-11.2734
▁లాంటి	-11.2735
ళ్ళ	-11.2737
▁రక్షణ	-11.2738
▁elected	-11.2739
▁వచ్చారా	-11.2739
▁అయినా	-11.2741
▁ఉండలేరు	-11.2742
్ల	-11.2743
▁వ్రాస	-11.2743
▁మాట్లాడగలడ	-11.2743
▁survived	-11.2747
▁వేరొకరి	-11.2748
▁చదవలేదు	-11.2748
▁కోల్పోతాడ	-11.2749
▁places	-11.2751
▁ఆలోచించడం	-11.2752
▁తెలియజేయ	-11.2753
▁బాధపడ్డాడు	-11.2757
▁పరిస్థితులు	-11.2758
▁అర్హుడు	-11.2758
▁పిలిచ	-11.2761
▁చెప్పకూడదు	-11.2761
▁జరగవచ్చు	-11.2762
▁skin	-11.2762
▁భరించలేను	-11.2767
▁ఆగి	-11.2775
ible	-11.2776
▁భయపడుతున్నారు	-11.278
▁బ్యాంకులో	-11.2796
▁నిద్రపోతున్నాడు	-11.2799
▁చేయబోతున్నాడు	-11.2805
▁goal	-11.2819
and	-11.282
▁నేర్ప	-11.2834
స్తారు	-11.2852
▁వర్క్	-11.2853
నేది	-11.2856
కపోవడం	-11.2856
▁భావిస్తున్న	-11.2865
▁షూ	-11.2873
▁కూర్చో	-11.2874
▁కోరుకున్న	-11.2875
▁చెందుతున్నార	-11.2883
▁ష	-11.2887
ke	-11.2899
గి	-11.291
ni	-11.2925
▁తర	-11.2928
▁Americans	-11.2937
x	-11.2952
▁egg	-11.2969
▁దా	-11.2969
▁ఫి	-11.2975
ుకుంటాను	-11.298
▁willing	-11.298
▁మీదే	-11.298
▁అనుమతించను	-11.2981
▁begins	-11.2982
ship	-11.2985
▁మూస	-11.2986
shirt	-11.2987
▁చూశార	-11.299
light	-11.2992
▁క్లిష్ట	-11.2994
▁భయపడుతున్నార	-11.2994
▁మాట్లాడగల	-11.2994
జా	-11.2995
our	-11.3001
▁asks	-11.3014
▁పొడవు	-11.302
▁తీసుకుంటున్నా	-11.3021
▁దిగి	-11.3031
▁replace	-11.3038
▁introduce	-11.3039
▁receive	-11.304
▁limit	-11.3041
▁steal	-11.3045
▁ఖచ్చితమైన	-11.305
▁cap	-11.3052
▁చదువుకోవాల	-11.3053
nder	-11.3053
పిడి	-11.3054
▁Spanish	-11.3054
▁advance	-11.3054
▁contain	-11.3054
▁dessert	-11.3054
▁exhausted	-11.3054
▁flag	-11.3054
▁plate	-11.3054
▁population	-11.3054
▁position	-11.3054
▁stories	-11.3054
▁studies	-11.3054
▁valuable	-11.3054
▁అంకితం	-11.3054
▁ఇష్టపడ్డాను	-11.3054
▁చేయాల్సిందల్లా	-11.3054
▁జబ్బు	-11.3054
▁జెండా	-11.3054
▁డెజర్ట్	-11.3054
▁దర్యాప్తు	-11.3054
▁నక్షత్రాల	-11.3054
▁మేనేజర్	-11.3054
▁శాస్త్రీయ	-11.3054
▁స్పానిష్	-11.3054
▁terms	-11.3054
▁తప్పేంటి	-11.3054
▁spot	-11.3054
▁మద్య	-11.3054
▁మానేసి	-11.3054
▁మ్యాచ్	-11.3054
▁cities	-11.3054
▁selfish	-11.3054
▁అడిగితే	-11.3054
▁షవర్	-11.3054
▁chest	-11.3054
▁compare	-11.3054
▁కావలసింద	-11.3054
▁బెల్ట్	-11.3055
▁nowhere	-11.3055
▁చేస్తాయి	-11.3055
▁coach	-11.3056
▁చేయగలిగితే	-11.3056
▁నోటి	-11.3056
▁బాధపడుతున్నాను	-11.3056
▁కడగాలి	-11.3057
▁తీసుకున్నాము	-11.3058
▁బయటపడ్డాడు	-11.3058
▁ముగుస్తుంది	-11.3058
▁చనిపోయింది	-11.3058
▁నె	-11.3059
▁నియమం	-11.3059
ాపకం	-11.3059
▁ప్రయత్నాల	-11.3061
▁ఉత్తమమైనది	-11.3061
▁classes	-11.3062
▁టూ	-11.3063
▁closer	-11.3064
▁birth	-11.3064
▁engineer	-11.3065
▁అవసరమైనది	-11.3067
పర్	-11.3067
▁పొందలేదు	-11.3068
▁లంగా	-11.307
▁శోధించ	-11.307
▁చూడలేను	-11.3071
▁యంత్రం	-11.3072
▁rush	-11.3075
▁తీసుకోలేదు	-11.3075
▁చేయగలిగినది	-11.3079
▁చెవులు	-11.3082
▁changes	-11.3084
▁నిజాయితీగా	-11.3089
▁కవిత	-11.3092
▁cares	-11.3095
▁ఉపాధ్యాయులు	-11.3096
▁ఏళ్లు	-11.3106
ాన	-11.3111
▁పాటించాల	-11.3119
▁నటి	-11.3122
▁గాయాల	-11.3123
▁పిలిచి	-11.3131
▁ఉన్నది	-11.3132
▁lit	-11.3136
ian	-11.314
▁ఫార	-11.3141
▁పేద	-11.3147
▁grown	-11.3152
ున్నట్లు	-11.3157
▁వేలు	-11.3158
▁Sh	-11.3159
▁నవ్వించ	-11.3165
▁కదల	-11.317
లాండ్	-11.3188
ap	-11.3194
▁నివారించ	-11.32
▁కుట్ట	-11.3218
▁hi	-11.3222
▁అదృష్ట	-11.3225
▁చనిపో	-11.3238
▁ha	-11.3241
▁చేరుకో	-11.3244
▁ఇవ్వాల	-11.3246
▁వ్యవహరిస్తున్నా	-11.3246
▁గమనించా	-11.326
▁చెప్పాలనుకున్నా	-11.3268
▁కప్ప	-11.3276
wi	-11.3301
ిష్	-11.3303
▁wa	-11.3308
▁suggestion	-11.3309
aid	-11.3318
రంగు	-11.3332
బాల్	-11.3337
▁కొట్టగలడ	-11.3339
▁మానవ	-11.3341
▁కాళ్ళ	-11.3356
▁తప్పించ	-11.3372
▁ఉపయోగించా	-11.3373
ged	-11.3375
ద్ద	-11.3377
▁scream	-11.3377
▁shave	-11.3383
▁లక్ష్య	-11.3387
▁నడిపించ	-11.3388
▁కార్యాలయం	-11.3392
▁వ్యక్తిగత	-11.3392
▁comp	-11.3393
▁తిరిగ	-11.3393
▁tight	-11.3393
▁స్వి	-11.3393
▁witness	-11.3398
▁defend	-11.3399
▁neck	-11.3399
▁instructions	-11.3399
▁quarrel	-11.3399
▁scratch	-11.3399
▁shape	-11.3399
▁violin	-11.3399
▁ఆదివారాల	-11.3399
▁ఇంజనీర్	-11.3399
▁ఒత్తిడి	-11.3399
▁గురక	-11.3399
▁డ్యూటీ	-11.3399
▁పెద్దమనిషి	-11.3399
▁యాభై	-11.3399
▁వయోలిన్	-11.3399
▁విచిత్రం	-11.3399
▁శాతం	-11.3399
▁శుభవార్త	-11.3399
▁శుభాకాంక్షలు	-11.3399
▁తెలియజేస్తా	-11.3399
▁పట్టుబట్ట	-11.3399
▁wide	-11.3399
▁gentleman	-11.3399
▁invented	-11.3399
▁మేల్కొన్నాడు	-11.3399
▁market	-11.3399
▁చెప్పదలచుకున్న	-11.3399
▁bitten	-11.3399
▁odd	-11.3399
▁నాలుక	-11.3399
▁నవ్వుతున్నారు	-11.3399
▁ఉపాధ్యాయుడు	-11.3399
▁వెయిటర్	-11.3399
▁డాగ్	-11.3399
▁illness	-11.3399
▁active	-11.34
▁pants	-11.34
▁Watch	-11.34
▁హ్యాండ్	-11.34
▁విభజించ	-11.34
ాంతం	-11.3401
▁కోచ్	-11.3401
▁ఆరోపణలు	-11.3402
▁వస్తోంది	-11.3402
▁సహాయపడుతుంది	-11.3403
▁offended	-11.3403
▁fortune	-11.3403
▁సంపాదిస్తాడు	-11.3404
▁disappeared	-11.3404
▁useless	-11.3404
▁ఏడుస్తున్న	-11.3405
▁belt	-11.3405
ిస్తున్నారు	-11.3408
▁తాకింది	-11.3408
▁చేసుకోండి	-11.3408
▁వెళ్తారా	-11.3409
▁వేగం	-11.3409
▁debt	-11.341
▁lead	-11.341
▁searched	-11.341
▁పెరిగాను	-11.341
▁anger	-11.3412
▁భయంకరమైనది	-11.3414
▁గో	-11.3415
▁పంపారు	-11.3415
▁ప్రదేశాల	-11.3415
▁oldest	-11.3418
▁సంకేతం	-11.3418
▁ప్రారంభించాలి	-11.3421
బోయే	-11.3422
▁తాగుతా	-11.3422
▁తీయడం	-11.3423
▁flying	-11.3423
▁మాట్లాడవచ్చు	-11.3424
▁విన్నారు	-11.3427
ట్టుబడి	-11.3428
▁కోరుకుంటున్నారు	-11.3428
▁toys	-11.3431
▁none	-11.3432
▁ఆలోచిస్తున్నారు	-11.3435
▁అదృష్టవంతులు	-11.3438
▁గుర్రాలు	-11.3439
▁కాను	-11.344
▁భయపడలేదు	-11.3442
▁ఉండబోతున్నాడు	-11.3447
▁రాజు	-11.3448
డూ	-11.3449
▁భవిష్యత్తులో	-11.345
▁చేయాలనుకున్న	-11.3453
▁appearance	-11.3461
▁మార్చడానికి	-11.3465
▁లేచా	-11.3472
▁ప్రా	-11.3482
▁king	-11.3485
ేంత	-11.349
▁తెచ్చ	-11.3505
▁చెందార	-11.3505
▁విధ	-11.3507
▁కొత్తది	-11.351
▁fingers	-11.3514
ue	-11.3514
▁చదివ	-11.3514
▁unfair	-11.3516
per	-11.3552
▁నేర్చుకో	-11.3553
▁చివరిలో	-11.3555
▁ఎన్	-11.3556
రాలు	-11.3559
▁ends	-11.3565
▁పంపాడ	-11.3572
▁gives	-11.3582
▁స్థాన	-11.3585
▁అందించ	-11.3586
▁సాధిస్తాడ	-11.3602
▁అవకాశాల	-11.3614
▁బల	-11.3623
నప్పుడు	-11.3623
▁ప్లేట్	-11.3623
ary	-11.3628
▁మో	-11.3635
▁te	-11.3656
▁అనుసరిస్త	-11.3664
▁document	-11.3666
జీ	-11.3668
▁ours	-11.3671
▁అనుమానించ	-11.3678
▁వీపు	-11.3687
?"	-11.369
year	-11.3691
ముందు	-11.3692
▁పక్షుల	-11.3696
▁బూట్ల	-11.3697
▁చేసుకున్నామ	-11.3708
▁కూర్చుం	-11.3715
▁నివసిస్త	-11.3721
▁అర్థ	-11.3721
▁గుడ్డి	-11.3728
▁వెళ్ళిన	-11.3734
▁చూశాన	-11.3739
▁వసంత	-11.3739
▁తీసుకున్న	-11.3739
▁చేయబో	-11.3741
▁request	-11.3743
▁wound	-11.3744
▁build	-11.3747
▁తొక్క	-11.3751
▁పోల్చ	-11.3752
▁భరించలే	-11.3753
▁కొలను	-11.3753
▁పదేళ్ల	-11.3754
▁చింతించ	-11.3755
▁India	-11.3756
▁accent	-11.3756
▁audience	-11.3756
▁conference	-11.3756
▁detective	-11.3756
▁equal	-11.3756
▁handwriting	-11.3756
▁naive	-11.3756
▁neighborhood	-11.3756
▁notebook	-11.3756
▁particular	-11.3756
▁romantic	-11.3756
▁thick	-11.3756
▁threatened	-11.3756
▁unlucky	-11.3756
▁yourselves	-11.3756
▁అతిశయోక్తి	-11.3756
▁అభ్యంతరం	-11.3756
▁ఇటలీ	-11.3756
▁ఉపయోగం	-11.3756
▁కన్నుమూశార	-11.3756
▁కవరు	-11.3756
▁గెలుస్తార	-11.3756
▁డిటెక్టివ్	-11.3756
▁తెల్లవారుజాము	-11.3756
▁పదిహేన	-11.3756
▁ప్రాక్ట	-11.3756
▁సాక్షి	-11.3756
▁స్నేహపూర్వక	-11.3756
▁grass	-11.3756
▁పేల్చ	-11.3756
▁పోషించ	-11.3756
▁loss	-11.3756
▁released	-11.3756
▁జాజ్	-11.3756
▁సోమరితనం	-11.3756
▁కష్టమేనా	-11.3756
▁తేలికపాటి	-11.3756
▁Italy	-11.3756
▁lack	-11.3756
▁పొరుగువారు	-11.3756
▁అనుకుందాం	-11.3756
▁విసిరేయ	-11.3757
▁యాస	-11.3757
▁వెళ్ళిపోయారు	-11.3757
▁చేయగలిగేది	-11.3757
▁ఫైర్	-11.3758
▁pity	-11.3758
▁లోపాల	-11.3758
ug	-11.3758
▁capable	-11.3759
▁soft	-11.3759
▁Say	-11.3759
▁అలాగే	-11.376
▁ఆపివేయండి	-11.376
▁వహించండి	-11.376
▁గుడ్డు	-11.3761
▁కలిగించదు	-11.3761
▁square	-11.3761
▁ఫ్రి	-11.3762
▁నిశ్చితార్థం	-11.3762
▁మరచిపోయాడు	-11.3763
▁పెద్దవాడిని	-11.3763
▁ఇంగ్లీషులో	-11.3765
▁నేర్చుకున్నారు	-11.3766
▁అబద్ధాలు	-11.3769
▁Oh	-11.3769
▁fo	-11.377
▁tip	-11.377
▁peanuts	-11.3771
▁అనుకున్నారు	-11.3771
▁మూడేళ్లుగా	-11.3771
▁ఆలోచిస్తున్నారా	-11.3772
▁scar	-11.3772
▁వేశారు	-11.3774
▁కనిపిస్త	-11.3774
▁తలపై	-11.3774
▁అదృష్టవంతుడు	-11.3775
▁గెలిచాడు	-11.3775
▁పాతవాడు	-11.3776
▁ఉంచాలి	-11.3777
▁గ్రహించలేద	-11.3778
▁smaller	-11.3778
▁quietly	-11.3779
▁ఆఫీసులో	-11.3781
▁సేకరించ	-11.3782
▁అవుతారు	-11.3784
▁falling	-11.3784
▁నీటిలో	-11.3785
▁ఆలోచించండి	-11.3786
▁మాట్లాడలేను	-11.3786
▁raw	-11.3786
▁చదువు	-11.3789
▁కే	-11.3794
▁highly	-11.3796
▁sleeps	-11.3798
▁రహస్యాల	-11.3803
▁డి	-11.3805
▁ఒప్పుకో	-11.3807
omen	-11.3811
▁ప్రయత్ని	-11.3812
▁waiter	-11.3817
▁earns	-11.3819
▁bananas	-11.3823
▁కలిసిన	-11.3825
▁doubts	-11.3827
ుకుంటున్నారు	-11.3836
▁కళ్ళలో	-11.3837
▁చిక్కుకున్న	-11.3839
▁సీట్	-11.385
▁meal	-11.3852
▁కూరగాయలు	-11.3868
▁నవ్వు	-11.3883
▁వంటి	-11.3893
రుస్తుంది	-11.392
▁Eat	-11.3925
▁కొనసాగ	-11.3927
▁కిటికీలో	-11.3933
▁చేరుకోవ	-11.3935
▁houses	-11.394
▁అత్యవసరం	-11.3944
ెన్	-11.3946
▁బయటపడాల	-11.3953
▁చేశాడా	-11.3961
▁ఇచ్చార	-11.3961
▁రావడ	-11.3979
▁హాజరుకాలేద	-11.3993
ప్పటికీ	-11.3995
cording	-11.4001
ర్డ్	-11.4004
▁పడుకుంటా	-11.4013
▁sings	-11.4018
▁టా	-11.4028
▁drug	-11.4037
▁sometime	-11.4047
▁దగ్గు	-11.4052
▁ఖాతా	-11.4057
▁రెండ	-11.4063
▁గని	-11.4073
▁ఉండకూడద	-11.4077
రింగ్	-11.4079
▁bottles	-11.408
▁తాగిన	-11.4083
▁రాస్తున్నా	-11.4085
▁Mo	-11.4094
▁కాల్చా	-11.4102
▁అసూయ	-11.4102
▁అమాయక	-11.4107
▁కెనడా	-11.4107
▁కాలేజీ	-11.4108
బోతున్నాన	-11.4109
▁divorce	-11.411
▁arrest	-11.4114
▁తీసుకువెళ్ళ	-11.4117
▁pet	-11.412
▁sudden	-11.412
▁పదునైన	-11.4122
og	-11.4125
▁న్యాయం	-11.4125
▁major	-11.4126
▁Smok	-11.4126
▁Price	-11.4126
▁album	-11.4126
▁email	-11.4126
▁evidence	-11.4126
▁fridge	-11.4126
▁insurance	-11.4126
▁jazz	-11.4126
▁percent	-11.4126
▁salad	-11.4126
▁tattoo	-11.4126
▁అరగంట	-11.4126
▁పురాతన	-11.4126
▁వ్యాధి	-11.4126
▁సలాడ్	-11.4126
▁flood	-11.4126
▁noisy	-11.4126
▁అన్యాయం	-11.4126
▁ముగింపు	-11.4126
▁మోటారుసైకిల్	-11.4126
▁ప్రతిభావంతుల	-11.4126
▁అయ్యే	-11.4126
▁spare	-11.4126
yoto	-11.4126
▁కన్ను	-11.4126
▁changing	-11.4126
▁resist	-11.4127
▁boots	-11.4127
▁unconscious	-11.4127
▁partner	-11.4127
▁oven	-11.4127
▁fill	-11.4127
▁homesick	-11.4127
▁sheep	-11.4128
▁pig	-11.4128
▁ఆడతాడు	-11.4128
బమ్	-11.4128
▁చూస్తాము	-11.4129
▁లభించింది	-11.413
▁వేశాడు	-11.413
▁తీసుకోవచ్చు	-11.413
▁తీసుకుంటాడు	-11.413
▁scientist	-11.4131
▁సామర్థ్యం	-11.4131
▁insisted	-11.4133
▁ఎన్నికల	-11.4135
▁ఇచ్చాడ	-11.4136
▁professional	-11.4136
▁కలుసుకున్నాము	-11.4136
▁చేరుకున్నాడు	-11.4136
▁గోడపై	-11.4137
▁action	-11.4139
▁burning	-11.414
▁ruined	-11.4143
▁అసంబద్ధం	-11.4143
▁వాయించాడు	-11.4146
▁అనుమతించలేదు	-11.4147
▁కొనసాగించాడు	-11.4147
▁పొందడం	-11.4147
▁De	-11.4149
▁translated	-11.4151
▁k	-11.4151
▁succeeded	-11.4152
▁కెనడియన్లు	-11.4157
▁officer	-11.4158
▁మారిపోయ	-11.4159
▁తినకూడదు	-11.416
▁వస్తున్నారు	-11.416
▁చూపించలేదు	-11.4163
▁selling	-11.4173
▁చూడాలనుకుంటున్న	-11.418
▁twins	-11.4185
▁కొనండి	-11.4187
▁లై	-11.4191
▁Canadians	-11.4194
బయటపడండి	-11.4195
▁లోడ్	-11.4196
ily	-11.4196
▁వినడు	-11.4197
▁వదిలేయ	-11.4204
ుతున్నట్లు	-11.4206
▁అంతస్తు	-11.4207
▁లేస్తా	-11.4208
ier	-11.4224
▁orders	-11.4226
▁ప్రవర్తిస్త	-11.4228
▁cr	-11.4229
▁అక్కడిక	-11.4244
▁చెప్పినా	-11.4245
▁చెబుతున్నారు	-11.4246
మ్మ	-11.4253
నిద్రపోతున్నట్లు	-11.4254
▁గులాబీ	-11.426
▁ఇం	-11.4266
ిస్ట్	-11.4271
ify	-11.4275
పేర్	-11.428
▁దేవుడ	-11.4292
▁గందరగోళం	-11.4296
వీ	-11.4312
▁cups	-11.4314
▁పొ	-11.4318
▁ఓ	-11.4323
▁మంచిద	-11.4332
▁stepp	-11.4333
▁ఆల్	-11.4333
ear	-11.4342
ud	-11.4344
▁ముద్దుపెట్టుక	-11.4345
▁చేరుకోవాల	-11.4346
▁అలవాటుపడలేద	-11.4351
▁pre	-11.4352
ందున	-11.4365
▁ఇంట	-11.4374
▁pieces	-11.4401
▁కలవాల	-11.4403
▁knee	-11.442
▁lesson	-11.4423
A	-11.4444
▁నివసిస్తున్న	-11.4449
▁మూడ	-11.4453
▁కూర్చున్నా	-11.4455
ర్లు	-11.446
▁కోట్	-11.4472
▁మె	-11.4474
▁fashion	-11.448
▁కౌగిలించుకున్నా	-11.4481
పా	-11.4483
▁search	-11.449
▁pack	-11.449
▁నిశ్శబ్ద	-11.4492
▁జోడించ	-11.4494
▁వెళ్తున్నాన	-11.4495
▁tire	-11.4495
▁repeat	-11.4498
▁trick	-11.4498
▁అధిగమించ	-11.4502
▁హించలే	-11.451
▁ఆంగ్ల	-11.4511
▁commit	-11.4511
▁ప్రకాశవంతం	-11.4511
▁Next	-11.4511
▁Promise	-11.4511
▁celebrate	-11.4511
▁expenses	-11.4511
▁explosion	-11.4511
▁glance	-11.4511
▁misunderstand	-11.4511
▁ridiculous	-11.4511
▁surrounded	-11.4511
▁wild	-11.4511
▁అదన	-11.4511
▁ఆధునిక	-11.4511
▁ఎగతాళి	-11.4511
▁ఎప్పటిలాగే	-11.4511
▁చట్టవిరుద్ధం	-11.4511
▁చురుక	-11.4511
▁చెంప	-11.4511
▁రూమ్	-11.4511
▁రెండేళ్ల	-11.4511
▁రైతు	-11.4511
▁షర్టు	-11.4511
▁సోఫా	-11.4511
▁desire	-11.4511
▁vase	-11.4511
▁ఆనందిస్తార	-11.4511
▁లోతైన	-11.4511
▁ఇమెయి	-11.4511
▁మోకాలి	-11.4511
▁court	-11.4511
▁sofa	-11.4511
▁వేర్	-11.4511
▁కొందర	-11.4511
▁election	-11.4511
▁తన్నాడు	-11.4511
▁ప్రారంభిద్దాం	-11.4511
▁crack	-11.4511
న్నింటిన	-11.4511
▁lips	-11.4511
▁గుర్రపు	-11.4512
▁నిద్రపోయ	-11.4512
▁నిష్క్రమించ	-11.4512
▁అక్కర	-11.4512
▁fifty	-11.4512
▁పోలి	-11.4512
▁unlocked	-11.4512
▁కాకపోతే	-11.4512
▁hunting	-11.4513
▁టైమ్	-11.4514
▁impression	-11.4514
▁హెడ్	-11.4514
▁పూర్తయింది	-11.4514
▁పట్టించుకోడు	-11.4514
▁tallest	-11.4514
▁మాట్లాడుకుందాం	-11.4515
▁discovered	-11.4515
▁available	-11.4515
▁గౌరవించ	-11.4516
▁రుచికరమైనది	-11.4516
▁collection	-11.4517
▁అధికారి	-11.4518
▁సహనం	-11.4519
▁విప్పాడు	-11.4519
▁కొన్నది	-11.4519
▁ఇన్	-11.4519
▁ముడి	-11.4519
▁చిన్నప్పుడు	-11.452
▁మాట్లాడేవాడు	-11.452
▁రాక్	-11.4521
▁stealing	-11.4522
▁చేయగలిగిన	-11.4523
▁నవ్వలేదు	-11.4523
▁అలసిపోయాడని	-11.4525
▁warning	-11.4527
▁ఆశించారు	-11.4527
▁మాట్లాడవలసిన	-11.4528
▁అర్హులు	-11.4528
▁repaired	-11.4528
▁నేర్చుకున్నాడు	-11.4529
▁tail	-11.4531
▁భావిస్తారు	-11.4532
▁introduced	-11.4532
▁పనిచేశాను	-11.4538
▁నమ్మవద్దు	-11.4539
▁చేసేది	-11.4542
▁వేసింది	-11.4542
▁అంగీకరించలేదు	-11.4549
▁జనం	-11.4551
▁రాదు	-11.4554
▁మంచివారు	-11.456
▁చనిపోతాన	-11.4571
▁ఎందుక	-11.4572
▁చేరుకున్న	-11.4575
▁cleaned	-11.4575
▁wor	-11.4582
▁parking	-11.459
▁పొందలే	-11.4604
▁ప్రారంభ	-11.4615
▁మనసులో	-11.4618
▁వహించ	-11.462
ళ్ల	-11.4626
్యం	-11.4627
▁h	-11.4629
▁state	-11.4637
▁హలో	-11.4642
▁కష్టపడ	-11.4657
eg	-11.4666
ngle	-11.4666
▁starts	-11.4669
▁గాయపడలేద	-11.4672
iss	-11.4674
▁క్రీడ	-11.4682
▁తెర	-11.4686
▁bat	-11.4687
ేనా	-11.4688
▁పడుకున్న	-11.4694
▁mis	-11.4699
▁stars	-11.4704
▁అపార్ట్మెంట్లో	-11.4715
▁కోరిన	-11.4719
రమైన	-11.4727
సైన్స్	-11.4732
▁చెల్లించాల్సి	-11.4735
▁షూట	-11.4736
▁కోప	-11.4742
ving	-11.4744
ెన్న	-11.4751
▁cab	-11.4753
▁కొన్నేళ్లు	-11.4753
గలదు	-11.4761
▁చనిపోవాల	-11.4768
▁deserves	-11.4779
▁విమాన	-11.4782
▁secrets	-11.4783
▁ప్రభావిత	-11.4783
▁పరిష్కరించా	-11.479
▁listens	-11.4793
▁నిజమ	-11.4795
▁రాయి	-11.4803
▁బానిస	-11.4804
ుతున్నారు	-11.4814
్యు	-11.482
▁comment	-11.4821
▁అంతస్తుల	-11.4827
▁ఆపివేయ	-11.4827
min	-11.4831
▁రాలేన	-11.4839
▁అంగీకరించా	-11.4839
▁హెచ్చరిక	-11.4843
▁కన్నీళ్ల	-11.4849
▁వినలేద	-11.485
▁కూర్చోవ	-11.4854
▁dec	-11.4863
lose	-11.4863
▁వెళ్తాన	-11.4874
తను	-11.4875
▁వెళ్ళిపోయాడ	-11.4879
▁చాల	-11.4879
▁తట్ట	-11.488
▁సంతోషపెట్ట	-11.4887
▁యంత్ర	-11.4889
▁suffer	-11.4889
▁బంగార	-11.4892
▁admire	-11.4895
▁తీర	-11.4896
▁అనిపిస్తుంద	-11.4896
▁వాగ్దానాల	-11.4896
▁volunteer	-11.4898
▁talent	-11.4899
▁చెప్తున్నార	-11.49
▁yell	-11.4901
▁affect	-11.4908
▁మొ	-11.4908
▁పెరుగుతోంద	-11.4908
ాత్మక	-11.491
▁మూర్ఖ	-11.491
▁permit	-11.4911
▁argument	-11.4911
▁burglar	-11.4911
▁buried	-11.4911
▁citizen	-11.4911
▁excited	-11.4911
▁marriage	-11.4911
▁nearby	-11.4911
▁service	-11.4911
▁surgery	-11.4911
▁victim	-11.4911
▁అధ్వాన్న	-11.4911
▁అనుకూల	-11.4911
▁ఆకర్షించ	-11.4911
▁ఆవిష్కరణ	-11.4911
▁ఉదార	-11.4911
▁కజిన్	-11.4911
▁కొరత	-11.4911
▁చేతివ్రాత	-11.4911
▁ట్రంక్	-11.4911
▁ట్రిప్	-11.4911
▁తెరిచాను	-11.4911
▁దరఖాస్తు	-11.4911
▁దోపిడీ	-11.4911
▁న్యాయమూర్తి	-11.4911
▁పచ్చబొట్టు	-11.4911
▁పుకారు	-11.4911
▁పొగమంచు	-11.4911
▁మరెక్కడ	-11.4911
▁మేల్కొన్నాను	-11.4911
▁రెండింటి	-11.4911
▁వ్రాస్తాడు	-11.4911
▁సేకరణ	-11.4911
▁announce	-11.4911
▁silly	-11.4911
▁swam	-11.4911
▁vegetarian	-11.4911
▁బేసి	-11.4911
▁నిరంతర	-11.4911
struck	-11.4911
▁describe	-11.4911
▁ugly	-11.4911
▁యువకుడు	-11.4911
▁trunk	-11.4911
▁education	-11.4911
▁బాగుంటుంద	-11.4911
▁pork	-11.4911
▁battle	-11.4911
▁mouse	-11.4911
▁ప్లేయర్	-11.4911
▁optimistic	-11.4911
▁password	-11.4911
▁degrees	-11.4911
▁ఆరోగ్యకరమైన	-11.4911
▁spread	-11.4911
▁nap	-11.4911
▁స్కేట్	-11.4911
▁potatoes	-11.4911
▁science	-11.4912
▁ఇళ్ళు	-11.4912
▁వెళుతుంది	-11.4912
▁అయో	-11.4913
▁గింజలు	-11.4913
▁తెలుస్తుంది	-11.4914
▁bigge	-11.4914
▁కష్టమైంది	-11.4915
▁యువకుల	-11.4915
ound	-11.4915
oney	-11.4915
▁కప్పుల	-11.4916
▁మీటర్ల	-11.4916
uff	-11.4918
▁సిద్ధాంతం	-11.4919
▁south	-11.4919
▁క్రిందికి	-11.4919
▁హైస్కూల్	-11.492
▁జాలి	-11.492
▁text	-11.4921
▁విచిత్రమైనది	-11.4921
▁నష్టం	-11.4921
▁ఉండవలసిన	-11.4922
▁మిగిలిన	-11.4923
▁పెరగ	-11.4924
▁doctors	-11.4926
▁మరచిపో	-11.4927
▁నడుపుతున్న	-11.4929
▁అన్నింటి	-11.4932
▁సురక్షితమైన	-11.4933
▁చేయబోతున్నారా	-11.4933
▁వైద్యులు	-11.4935
▁పదే	-11.4936
▁డైట	-11.494
chi	-11.4943
▁కనుగొంటాను	-11.4951
▁పొందారు	-11.4953
▁చనిపోయారు	-11.4954
▁పిచ్చివాడు	-11.4955
బోతున్న	-11.4965
తాము	-11.4965
▁row	-11.4968
▁చేయగలమా	-11.4979
▁Ha	-11.498
▁కుకీ	-11.4983
డమే	-11.4986
▁మార్కెట్లో	-11.4987
నట్లు	-11.4987
▁thanks	-11.4988
▁headed	-11.4993
▁తాగడు	-11.4994
▁visiting	-11.4995
లేచాను	-11.5005
▁మాట్లాడగలను	-11.5013
▁తీసివేస	-11.5013
▁పట్టు	-11.5016
దురు	-11.502
▁లింక	-11.5022
ుందో	-11.5023
▁తోక	-11.5034
▁within	-11.5034
▁మెరు	-11.5037
ెం	-11.5038
ేలా	-11.5068
▁lately	-11.5076
▁ట	-11.5078
▁computers	-11.5085
పోయాడు	-11.5086
▁ఆడుతున్నా	-11.5092
▁పోయ	-11.5094
టీ	-11.5106
▁కోల్పోయిన	-11.5107
▁ఒకేలా	-11.5108
దగినది	-11.5119
▁నమ్మక	-11.5119
▁తీసుకురా	-11.5122
▁నియంత్రించ	-11.5125
▁పె	-11.5132
దారుల	-11.515
▁చేయము	-11.5151
▁దొంగిలించిన	-11.5162
board	-11.5166
bra	-11.5169
▁చదువుకో	-11.517
▁తీసుకుంద	-11.5174
▁బంగాళాదుంపల	-11.5177
▁చూసుకోవాల	-11.5179
▁విద్యార్థిని	-11.518
▁కేక	-11.5207
▁అసాధారణం	-11.5212
పిస్తోంది	-11.5212
▁కదిల	-11.5224
▁బయలుదేరబోతున్నా	-11.5232
▁daughters	-11.526
▁వేగ	-11.5269
▁చూడగలన	-11.5269
▁పడకగది	-11.5282
▁దొరక	-11.5289
▁అరుదు	-11.5294
▁ధరించిన	-11.5301
▁rescue	-11.5311
▁కారణమ	-11.5312
▁draw	-11.5313
▁తీశా	-11.5315
▁crash	-11.5315
▁హార్	-11.5316
▁యువ	-11.5322
▁చూస్తాన	-11.5327
▁apart	-11.5327
▁author	-11.5327
▁electric	-11.5327
▁ప్రస	-11.5328
▁సోమరి	-11.5328
▁ఉంగరాన	-11.5328
▁విహారయాత్ర	-11.5328
▁alibi	-11.5328
▁ambulance	-11.5328
▁beauty	-11.5328
▁ceiling	-11.5328
▁curtain	-11.5328
▁financial	-11.5328
▁general	-11.5328
▁lamp	-11.5328
▁model	-11.5328
▁poker	-11.5328
▁practical	-11.5328
▁preparing	-11.5328
▁stubborn	-11.5328
▁అంబులెన్స	-11.5328
▁అలీబి	-11.5328
▁ఆశాజనక	-11.5328
▁తీర్పు	-11.5328
▁దీప	-11.5328
▁పరిశోధన	-11.5328
▁మలుపు	-11.5328
▁వృద్ధాప్యం	-11.5328
▁శస్త్రచికిత్స	-11.5328
▁అభ్యర్థన	-11.5328
▁ఆమోదించ	-11.5328
▁ఎంతమంది	-11.5328
▁బాలుడి	-11.5328
▁బీమా	-11.5328
▁అధ్యక్షుడి	-11.5328
▁బుట్ట	-11.5328
▁happiness	-11.5328
▁మరణశిక్ష	-11.5328
▁పండ్ల	-11.5328
▁lung	-11.5328
▁crush	-11.5328
▁మేట్స్	-11.5328
▁అన్నయ్య	-11.5328
▁ధరిస్తాను	-11.5328
▁bound	-11.5328
▁fake	-11.5328
▁ఆశిస్తున్నాడు	-11.5328
▁చేరుకుంది	-11.5329
▁classical	-11.5329
▁నడుస్తుంది	-11.5329
▁Send	-11.5329
▁ఆడతారు	-11.533
▁లేప	-11.533
▁ఖన	-11.533
▁కోరుకుంటుంది	-11.533
▁friendship	-11.533
▁ఆడతాను	-11.533
▁ju	-11.5331
▁పాప్	-11.5331
▁cancel	-11.5332
▁careless	-11.5334
ron	-11.5335
▁Men	-11.5335
▁కొనగలను	-11.5336
▁dancer	-11.5337
▁ఇస్తారా	-11.5337
▁విన్నాము	-11.5337
▁gained	-11.5337
▁larger	-11.5338
▁ధృవీకరించ	-11.5338
▁స్పష్టమైన	-11.5338
▁pressed	-11.5339
▁పెద్దవారు	-11.534
▁loudly	-11.534
▁కనిపించింది	-11.5344
▁పొందాలి	-11.5344
▁lion	-11.5344
▁కుటుంబానికి	-11.5346
▁హించాను	-11.5347
▁శరీరం	-11.5348
▁చూసుకుంటాను	-11.5348
నో	-11.5348
▁hall	-11.5349
▁వెళ్ళగలను	-11.535
▁దిగాడు	-11.5351
▁original	-11.5351
▁breathing	-11.5352
▁జర్మనీలో	-11.5352
0,000	-11.5353
▁పొందింది	-11.5354
▁ఒప్పించడం	-11.5354
▁ringing	-11.5358
▁అలాంటిది	-11.5358
ెల్	-11.5358
▁క్రూరమైన	-11.5359
▁attended	-11.5359
▁ఉన్నంత	-11.536
▁turns	-11.5361
▁చెందడం	-11.5361
ున్నాము	-11.5363
స్ట్	-11.5365
▁మాట్లాడలేడు	-11.5366
▁difficulty	-11.5371
▁తీసుకుంటారు	-11.5374
▁ఉచితంగా	-11.5377
▁క్లా	-11.5378
▁కుమార్తెలు	-11.5382
▁హృదయం	-11.5383
▁తాగుతున్నార	-11.5384
dy	-11.5392
▁sells	-11.5398
▁క్లి	-11.5414
▁చెందుతార	-11.5415
▁drugs	-11.5429
న్స్	-11.543
▁concentrate	-11.5444
▁కేసుల	-11.545
▁ఏమని	-11.5483
ki	-11.5489
▁అడిగార	-11.5501
▁promises	-11.5503
లేనిది	-11.5503
▁టైర్	-11.551
▁గౌరవం	-11.5511
▁plants	-11.5522
▁Hi	-11.5525
▁పాడాల	-11.5528
▁తీసుకువచ్చ	-11.553
side	-11.5537
బడతాయి	-11.5555
ుదాం	-11.5559
▁Ba	-11.5569
హించిన	-11.5579
▁కొనాలనుకుంటున్న	-11.5588
▁ఖర్చుల	-11.559
▁చూపు	-11.5591
▁నిర్ణయాల	-11.5593
▁ప్రయాణిస్తున్న	-11.5594
▁యెన్	-11.5606
▁భవన	-11.5612
▁ఇష్టపడే	-11.5622
▁గురయ్యా	-11.5629
ప్రి	-11.5632
▁జరిగ	-11.5636
▁చెల్ల	-11.5642
బా	-11.5649
out	-11.5655
▁ఉత్తమమైన	-11.5656
స్తు	-11.5656
▁పడిపోయ	-11.5662
▁రికార్డ	-11.5668
▁తింటున్న	-11.5671
▁rumor	-11.5672
▁ghost	-11.5674
▁soldier	-11.5675
▁shoe	-11.5675
▁కాల్చి	-11.5679
▁stranger	-11.5685
య్యారు	-11.5693
D	-11.5694
▁పర్వత	-11.5704
▁చేయలేర	-11.5705
▁చనిపోయి	-11.5707
▁chose	-11.5719
▁దేశాల	-11.572
వాది	-11.5721
▁వృద్ధ	-11.5726
▁క్యా	-11.5727
చు	-11.5729
▁పగలగొట్ట	-11.574
ెస్	-11.5743
▁serve	-11.5748
▁pull	-11.575
ping	-11.5752
▁వాస్తవాల	-11.5752
▁దొరికింద	-11.5752
▁సమాచార	-11.5752
▁ఆరోపించ	-11.5753
▁కలిశార	-11.5756
▁కొండ	-11.5757
▁వహిస్తా	-11.5758
▁slight	-11.5759
▁స్నో	-11.5759
▁seats	-11.5761
emember	-11.5762
▁ఆకర్షణీయం	-11.5762
▁Brazil	-11.5762
▁Hurry	-11.5762
▁Osaka	-11.5762
▁Think	-11.5762
▁classmates	-11.5762
▁cruel	-11.5762
▁dawn	-11.5762
▁impatient	-11.5762
▁kilometers	-11.5762
▁knowledge	-11.5762
▁necklace	-11.5762
▁ocean	-11.5762
▁religion	-11.5762
▁skating	-11.5762
▁spoon	-11.5762
▁అభివృద్ధి	-11.5762
▁అసౌకర్య	-11.5762
▁ఉనికి	-11.5762
▁ఒసాకా	-11.5762
▁కొద్దిమంది	-11.5762
▁చమురు	-11.5762
▁చెబితే	-11.5762
▁తీపి	-11.5762
▁పన్నెండు	-11.5762
▁పురోగతి	-11.5762
▁ప్యాకేజీ	-11.5762
▁ముద్ర	-11.5762
▁రక్తస్రావం	-11.5762
▁సిఫార్సు	-11.5762
▁సీజన్	-11.5762
▁సుత్తి	-11.5762
▁సేకరిస్త	-11.5762
▁కోర్టు	-11.5762
▁మాట్లాడతారా	-11.5762
▁grave	-11.5762
▁stove	-11.5762
▁అదృశ్యమయ్యా	-11.5762
▁రోమ్	-11.5762
▁అపార్థం	-11.5762
▁స్కేటింగ్	-11.5762
▁ఓహ్	-11.5763
▁double	-11.5763
▁లోపం	-11.5763
▁pressure	-11.5763
▁ఓవర్	-11.5763
▁తెలిసినంతవరకు	-11.5763
▁package	-11.5763
▁electricity	-11.5763
▁Few	-11.5763
▁drew	-11.5763
▁నిండిపోయింది	-11.5763
▁ఇస్తుంది	-11.5763
▁Hand	-11.5763
▁wipe	-11.5763
▁కాటు	-11.5763
▁అవుతోంది	-11.5764
▁టాప్	-11.5764
▁స్టార్	-11.5764
▁చూస్త	-11.5764
▁విన్నప్పుడు	-11.5764
▁గడుపుతారు	-11.5764
▁discussion	-11.5764
▁spite	-11.5764
▁కార్డ్	-11.5764
▁పట్టుకున్నారు	-11.5765
▁అమలు	-11.5766
▁నక్క	-11.5766
▁సోమవారాలలో	-11.5766
▁చేసుకుంటాన	-11.5766
▁రైడ	-11.5767
▁మోగింది	-11.5768
▁waved	-11.5769
▁మొరటుగా	-11.5769
▁నడుస్తున్నాడు	-11.577
▁meters	-11.5771
▁leader	-11.5771
▁ఉండలేడు	-11.5771
▁నేర్పించారు	-11.5772
▁చెందినవాడు	-11.5772
▁తిన్నది	-11.5773
▁పెట్టవద్దు	-11.5773
▁గ్రామంలో	-11.5775
▁బాత్రూంలో	-11.5777
▁dust	-11.5779
▁ఎదురుచూస్తున్న	-11.5781
▁dye	-11.5782
▁కాల్పులు	-11.5783
▁mentioned	-11.5784
▁deeply	-11.5784
▁farmer	-11.5787
▁చేసుకోలే	-11.5793
▁నేర్చుకుంట	-11.5797
▁ఆయుధం	-11.5798
▁దేవుని	-11.5802
▁నిజమేన	-11.5803
▁చెందుతున్నాడు	-11.5804
▁యెన్లు	-11.5805
▁ఆకాశంలో	-11.5806
ండర్	-11.5808
ంటా	-11.581
▁మాట్లాడగలరా	-11.581
▁పంటి	-11.5812
▁armed	-11.5813
▁కనుగొంటారు	-11.5813
▁నమ్మాడు	-11.5814
▁వస్తారా	-11.5828
▁రాజకీయాల	-11.584
▁పుట్టిన	-11.5842
▁ఆపై	-11.5858
▁blamed	-11.586
▁పడవలో	-11.5862
లీ	-11.5863
▁Ei	-11.5865
▁వాస్తవ	-11.5865
▁చర్చిలో	-11.5866
▁ఇవ్వడు	-11.5866
▁మాటలు	-11.5873
▁సమాన	-11.5874
for	-11.5874
▁రే	-11.5881
▁జరగనివ్వ	-11.5883
▁నటించా	-11.5891
▁presents	-11.5892
▁Fr	-11.5894
ze	-11.5913
▁మోగ	-11.5914
▁owner	-11.5917
ినందున	-11.592
▁చెప్పవద్ద	-11.5929
గ్స్	-11.5937
▁యు	-11.5938
▁వాక్య	-11.5942
▁జీవించలే	-11.5943
▁వాడ	-11.5946
▁answering	-11.595
గలిగే	-11.5951
▁bl	-11.5952
గలరని	-11.5959
కరమైన	-11.596
▁మాది	-11.5961
▁సందర్శించాల	-11.5973
ేదాన్ని	-11.5983
va	-11.5989
▁నిర్ధారించుకోవ	-11.599
claimed	-11.5995
ళ్లు	-11.5997
స్తుంద	-11.5999
కోండి	-11.6006
ినంత	-11.6011
▁కూర్చోవచ్చ	-11.6028
▁ఖైదీ	-11.603
▁మార్గాల	-11.6044
▁వాస్తవం	-11.6056
▁ప్రేమిస్తున్న	-11.6062
▁తింటున్నాన	-11.6065
ట్స్	-11.6066
▁విడిపోయ	-11.6083
▁newspapers	-11.6088
▁చూపలేద	-11.6096
నందున	-11.61
సందేహం	-11.6107
▁కొద్దిసేప	-11.6108
▁వివరించగలర	-11.6118
▁మించి	-11.6121
▁cigarette	-11.6128
▁stamp	-11.6129
▁తీసుకెళ్లాల	-11.6129
▁dollar	-11.613
▁కురుస్తుంద	-11.6136
▁వచ్చార	-11.6138
▁కనుగొంట	-11.6144
పాయింట్	-11.6149
పిరి	-11.6149
చేసింది	-11.6149
P	-11.615
ార్	-11.6151
▁వస్తున్నాడ	-11.6155
▁అతిథుల	-11.6156
▁కనుగొన్నార	-11.6158
▁ఏళ్ళ	-11.6159
▁file	-11.616
▁agrees	-11.6166
▁సంవత్సరాలుగా	-11.617
ల్డ్	-11.6179
▁గుర్తించార	-11.6185
▁చెప్పి	-11.6186
▁ఇష్టపడుతున్నార	-11.6196
▁sweat	-11.6204
▁ఆదేశించ	-11.6204
▁resign	-11.6204
▁shock	-11.6205
11	-11.6206
▁blow	-11.6208
▁చా	-11.621
▁మచ్చ	-11.6212
▁వ్యత్యాస	-11.6217
▁President	-11.6217
▁School	-11.6217
▁backyard	-11.6217
▁basket	-11.6217
▁complex	-11.6217
▁declined	-11.6217
▁develop	-11.6217
▁economy	-11.6217
▁garbage	-11.6217
▁genius	-11.6217
▁hammer	-11.6217
▁hesitate	-11.6217
▁interview	-11.6217
▁lady	-11.6217
▁lecture	-11.6217
▁level	-11.6217
▁modern	-11.6217
▁participate	-11.6217
▁twelve	-11.6217
▁value	-11.6217
▁అటకపై	-11.6217
▁ఆపరేషన్	-11.6217
▁ఇంటర్వ్యూ	-11.6217
▁చెర్రీ	-11.6217
▁జరిమానా	-11.6217
▁టాయిలెట్	-11.6217
▁నోట్బుక్	-11.6217
▁పనికిరానిది	-11.6217
▁పిలుస్తాడు	-11.6217
▁పెరట్లో	-11.6217
▁బ్రెజిల్	-11.6217
▁మనుగడ	-11.6217
▁మోడల్	-11.6217
▁వెలుపల	-11.6217
▁సబ్బు	-11.6217
▁హౌస్	-11.6217
▁average	-11.6217
▁interpret	-11.6217
▁ఉండగలరు	-11.6217
▁గేమ్	-11.6217
▁research	-11.6217
▁సెకను	-11.6217
▁lent	-11.6217
▁kidnapped	-11.6217
▁రకాల	-11.6217
▁వేళ్ల	-11.6217
▁lightning	-11.6217
▁panic	-11.6217
▁ముగియ	-11.6218
▁కూడిన	-11.6218
▁సన్నిహితులు	-11.6218
▁అదృష్టవశాత్త	-11.6218
▁elephant	-11.6218
▁అయినందుకు	-11.6218
▁గీత	-11.6218
▁drowning	-11.6219
▁తెలుసుకున్నాను	-11.6219
▁published	-11.6219
▁cheating	-11.622
▁అనుకోరు	-11.622
▁ఖరీదైనవి	-11.622
▁వస్తాయి	-11.622
▁బస	-11.622
▁మంటల్లో	-11.6221
న్నర	-11.6221
▁మునిగిపోయాడు	-11.6222
▁నివసిస్తుంది	-11.6223
▁కొండపై	-11.6223
▁అందమైనవాడు	-11.6223
▁Sit	-11.6224
▁ధరిస్తారు	-11.6224
▁గడిపారు	-11.6225
▁soap	-11.6227
▁suffering	-11.6228
▁recovered	-11.6228
▁తీసుకువెళ్ళాడు	-11.6228
▁హెచ్చరించాడు	-11.623
▁చదువుతారు	-11.623
▁crashed	-11.6231
ర్నెట్	-11.6233
▁పట్టించుకోరు	-11.6235
▁వేయడం	-11.6238
▁flu	-11.624
▁నేలమాళిగలో	-11.624
▁కోల్పోతారు	-11.6241
▁చేస్తున్నామ	-11.6243
▁beside	-11.6245
▁ప్రయత్నించింది	-11.6249
▁సంచిలో	-11.625
▁సున్నితమైన	-11.6251
shed	-11.6253
▁exception	-11.6254
▁తవ్వ	-11.6254
▁సందర్శించాను	-11.6256
▁పిలిచార	-11.6256
▁ఉన్నత	-11.6259
▁చెల్లించారు	-11.6261
▁attic	-11.6262
▁మేల్కొ	-11.6262
▁పరిష్కరించడం	-11.6266
▁భయపడడు	-11.6275
ade	-11.6276
▁మూసుకున్న	-11.6277
▁పన్ను	-11.6283
▁బ్ర	-11.6284
▁అనుభవించ	-11.6288
బోతున్నార	-11.6292
▁దాచాడు	-11.6293
▁తాము	-11.6303
▁చెందుతున్నారు	-11.6306
▁predict	-11.6316
▁ఆశిస్త	-11.6319
▁సూచనలు	-11.6321
ize	-11.6322
▁విప్ప	-11.6331
▁డే	-11.6335
▁గెలిచిన	-11.6342
ward	-11.6347
▁వణుకుతున్న	-11.635
▁ఒకదాని	-11.6354
▁lean	-11.636
లింగ్	-11.636
▁కష్టపడుతున్నా	-11.6363
▁closet	-11.6373
తానని	-11.6379
▁కౌగిలించుక	-11.6387
▁With	-11.639
▁దేనికి	-11.6398
▁చెప్పాలా	-11.6402
▁చెప్పినదాన	-11.6426
ating	-11.6426
▁గాలిలో	-11.6432
▁డై	-11.6446
▁నేర్పించగల	-11.6466
▁ఉపయోగించిన	-11.6472
▁ఆపలేర	-11.6483
▁బాల్య	-11.6484
ుకున్నాను	-11.6495
▁ఉంచుతాడ	-11.6504
▁అనుభవ	-11.6505
▁పెరుగుత	-11.6509
▁suitcases	-11.6515
▁నివసించడ	-11.6524
▁హై	-11.6531
leaned	-11.6545
▁వ్యాఖ్య	-11.6548
ుకోండి	-11.6553
▁ప్ల	-11.6556
▁ages	-11.6556
ుకోవడానికి	-11.6564
▁ఆలోచనల	-11.6565
▁ఉద్యోగంలో	-11.657
▁పడుకో	-11.6584
▁y	-11.6584
▁తీసుకున్నట్ల	-11.659
ించారు	-11.6591
▁tr	-11.6602
▁banana	-11.6604
▁sport	-11.6605
▁ప్రయత్నించార	-11.6615
య్యాడు	-11.6616
▁Sa	-11.6616
▁prisoner	-11.6618
▁పగలగొట్టిన	-11.6621
house	-11.6626
▁గుర్ర	-11.6627
law	-11.6628
▁చెరువు	-11.663
▁మునిగిపో	-11.6634
▁పడుతుంద	-11.6637
▁ఆధార	-11.6639
end	-11.6647
▁ఉపాధ్యాయుల	-11.6653
▁pens	-11.6654
▁వెళ్తాడ	-11.6656
▁కాల	-11.6657
io	-11.6666
▁చనిపోత	-11.6667
▁సముద్ర	-11.6675
▁నిశ్శబ్దం	-11.6676
▁prepare	-11.6677
▁insult	-11.6681
▁opera	-11.6681
▁press	-11.6682
ించలేదు	-11.6683
ెయ్యి	-11.6684
▁నమ్మదగిన	-11.6688
▁వేస్తాన	-11.6688
▁నేర్చుకోవాలన	-11.669
త్వ	-11.6692
▁పొరుగు	-11.6692
దేళ్ల	-11.6692
సాధ్యం	-11.6692
▁cell	-11.6693
▁scene	-11.6693
▁acquaint	-11.6693
▁magic	-11.6693
▁desert	-11.6693
▁దుమ్ము	-11.6693
▁విద్యుత్	-11.6693
ఎపి	-11.6693
▁Africa	-11.6693
▁Facebook	-11.6693
▁Fuji	-11.6693
▁Spain	-11.6693
▁bottom	-11.6693
▁bucket	-11.6693
▁eager	-11.6693
▁eleven	-11.6693
▁engagement	-11.6693
▁false	-11.6693
▁guarantee	-11.6693
▁investigation	-11.6693
▁itself	-11.6693
▁okay	-11.6693
▁rough	-11.6693
▁temper	-11.6693
▁terribly	-11.6693
▁textbook	-11.6693
▁అజాగ్రత్త	-11.6693
▁అసంతృప్తి	-11.6693
▁ఇస్త్రీ	-11.6693
▁ఉచ్చరించ	-11.6693
▁కార్యదర్శి	-11.6693
▁కీటకాల	-11.6693
▁కొవ్వొత్తుల	-11.6693
▁గజిబిజి	-11.6693
▁డబ్బా	-11.6693
▁దుర్వాసన	-11.6693
▁పడుకునే	-11.6693
▁పదకొండు	-11.6693
▁రెట్టింపు	-11.6693
▁లిఫ్ట	-11.6693
▁వడ్రంగి	-11.6693
▁విస్తరించ	-11.6693
▁శిఖర	-11.6693
▁సబ్వే	-11.6693
▁స్టాంప్	-11.6693
▁Love	-11.6693
▁bald	-11.6693
▁film	-11.6693
▁greet	-11.6693
▁measure	-11.6693
▁మోసగించ	-11.6693
▁సంపూర్ణ	-11.6693
▁below	-11.6693
▁crawl	-11.6693
▁వేలాది	-11.6693
▁divide	-11.6693
▁assistance	-11.6693
▁progress	-11.6693
▁ఓవెన్	-11.6693
▁చప్ప	-11.6693
▁తీసుకునే	-11.6693
▁subway	-11.6693
▁source	-11.6693
▁pillow	-11.6693
▁స్పెయిన్	-11.6693
▁department	-11.6693
▁operation	-11.6693
▁కొమ్మ	-11.6693
▁fox	-11.6694
▁ఆస్తి	-11.6694
▁దంతవైద్యుడి	-11.6694
▁stabbed	-11.6694
▁బాత్	-11.6694
▁చెలరేగాయి	-11.6694
▁దంతాల	-11.6694
▁గదుల	-11.6694
▁బయలుదేరుతా	-11.6695
▁నిర్మించబడింది	-11.6695
▁సంతానం	-11.6695
▁కుక్కపిల్ల	-11.6695
▁నిపుణుడు	-11.6695
▁జరిగాయి	-11.6695
▁topic	-11.6695
▁హాజరయ్యారు	-11.6695
▁guitarist	-11.6695
▁సృష్టించ	-11.6696
▁sheet	-11.6696
▁పనిచేశారు	-11.6696
▁తిరగండి	-11.6697
▁ఆశ్చర్యపరిచింది	-11.6698
▁వెళ్ళిపోవాలన	-11.6698
▁నడిపాడు	-11.6699
▁ఎంచుకున్నాడు	-11.6699
▁మరేద	-11.6699
▁spy	-11.6699
▁చేయబోతున్నాం	-11.67
▁చూడగానే	-11.67
▁informed	-11.6701
▁attract	-11.6701
▁ఖర్చవుతుంది	-11.6701
▁సద	-11.6702
▁మేల్కొలపండి	-11.6702
▁కడగడం	-11.6703
▁తీసుకువచ్చాడు	-11.6703
▁graduated	-11.6704
▁నిర్మించారు	-11.6704
▁removed	-11.6705
▁confessed	-11.6705
▁పుట్టాను	-11.6707
▁packed	-11.6709
▁కలిగించింది	-11.671
▁చెప్పలేరు	-11.671
▁అంశాల	-11.6712
▁చదువుకోవాలి	-11.6712
▁పేదవాడు	-11.6713
▁సైన్యంలో	-11.6714
▁shaved	-11.6716
▁soul	-11.6716
▁తాగుతారు	-11.6719
▁crowded	-11.6719
▁వెళుతున్నారు	-11.6719
▁మీదేనా	-11.672
▁Star	-11.6721
▁అలసిపోయారు	-11.6723
▁gu	-11.6724
▁ప్రయత్నిస్తూ	-11.6725
▁ఆహ్వానించాడు	-11.6727
▁Mom	-11.6733
▁fooled	-11.6734
▁ఆలోచించాను	-11.6735
▁నచ్చదు	-11.6737
▁ఉపయోగించినంత	-11.6737
▁నివసించారు	-11.6745
▁కథల	-11.6745
▁డ్రా	-11.6746
▁నిద్రపోయే	-11.6747
▁కనుగొనాల	-11.6748
▁రద్దీ	-11.6749
▁కూర్చుంట	-11.6749
▁వైపున	-11.6751
▁గుహలో	-11.6753
▁మందుల	-11.6766
▁efforts	-11.677
▁రోజున	-11.677
▁నొక్కి	-11.6776
పోతుంది	-11.6776
▁చూసార	-11.6777
▁candles	-11.6779
▁వెళ్లరు	-11.678
హా	-11.6787
▁ఇష్టపడర	-11.6795
▁నిద్రపోవాల	-11.6796
▁aside	-11.6797
▁రికార్డు	-11.6798
▁క్యారెట్ల	-11.6803
yon	-11.6805
▁barn	-11.681
ంతో	-11.6812
ేదో	-11.6815
▁సూచనల	-11.6826
▁అయ్యాడ	-11.6835
▁స్త్రీని	-11.6848
▁ఇష్ట	-11.6849
▁members	-11.685
స్తాయి	-11.685
▁చేసుకోను	-11.686
▁పాము	-11.6862
▁కడుగుత	-11.6865
▁కంటున్నా	-11.6869
▁కంప్యూటర్ల	-11.687
▁restaurants	-11.6873
▁అయిన	-11.6883
▁li	-11.6886
▁జీవ	-11.6886
▁ver	-11.6889
▁విలువైనద	-11.6893
▁వణుకుతున్నా	-11.6895
▁సో	-11.69
▁బాధపడుతున్నాడ	-11.6904
▁ఎగిర	-11.6908
▁చిక్క	-11.6915
▁గుండు	-11.692
▁పడద	-11.6928
ెంట్	-11.6929
▁చోటు	-11.6936
▁చంపాడ	-11.6958
ise	-11.6964
▁చీ	-11.6967
▁సందేశాల	-11.6972
▁misse	-11.6976
▁weigh	-11.698
▁phoned	-11.6988
▁చెప్పన	-11.6994
ithout	-11.7006
ుతున్నాయి	-11.7008
wa	-11.701
▁కలుపు	-11.7016
▁భావిస్తా	-11.7016
▁గ్రహించ	-11.7019
▁వాయిస్	-11.7022
▁వెళ్ళవచ్చ	-11.7024
▁అవుతున్నాన	-11.7032
It	-11.7041
ssed	-11.7043
▁గల	-11.7044
▁వెతకాల	-11.7046
▁డాలర్	-11.7052
▁నష్ట	-11.7058
▁chairs	-11.7079
▁నడుస్తున్న	-11.7087
▁గణిత	-11.7088
▁చెందిన	-11.7089
ub	-11.7094
▁tourist	-11.7103
▁adult	-11.7104
▁candle	-11.7104
▁gifts	-11.7122
▁చేసుకుంటార	-11.7132
▁విశ్వవిద్యాలయ	-11.7133
వేరు	-11.7139
▁మిగతా	-11.7141
ళ	-11.715
లేకపోయింది	-11.7152
▁మైక్రో	-11.7157
▁నిషేధించబడ	-11.716
cal	-11.7166
▁fr	-11.7167
ition	-11.7168
▁జరగవచ్చ	-11.7169
▁పాడతార	-11.7171
ించింది	-11.7175
▁విడిచి	-11.7178
కాల	-11.7179
▁అక్క	-11.7179
▁earn	-11.7179
▁pray	-11.7181
▁confess	-11.7181
▁recover	-11.7181
▁ఇచ్చా	-11.7181
▁cover	-11.7182
▁మీలాంటి	-11.7183
▁ద్వీపం	-11.7184
▁బెదిరించ	-11.7184
▁exact	-11.7187
ized	-11.7188
▁custom	-11.719
నడకన	-11.7191
▁వైద్య	-11.7191
▁tax	-11.7191
మయంలో	-11.7192
▁గెలుచుక	-11.7192
▁గురి	-11.7193
▁import	-11.7193
▁cheer	-11.7193
▁poet	-11.7193
▁వాషింగ్	-11.7193
ీకరించ	-11.7193
దెబ్బ	-11.7193
mobile	-11.7193
▁ఆత్రుత	-11.7193
▁అలవాట్ల	-11.7193
▁కండువా	-11.7193
▁చిరాకు	-11.7193
▁చెంచా	-11.7193
▁తేనె	-11.7193
▁బురద	-11.7193
▁సరిహద్దు	-11.7193
▁ీకొట్టి	-11.7193
మొబైల్	-11.7193
▁Earth	-11.7193
▁amount	-11.7193
▁anxious	-11.7193
▁bathtub	-11.7193
▁border	-11.7193
▁cheek	-11.7193
▁cowboy	-11.7193
▁dislike	-11.7193
▁downtown	-11.7193
▁emergency	-11.7193
▁generous	-11.7193
▁insects	-11.7193
▁jam	-11.7193
▁nonsense	-11.7193
▁pajamas	-11.7193
▁pleasure	-11.7193
▁political	-11.7193
▁politician	-11.7193
▁punctual	-11.7193
▁robbed	-11.7193
▁skeptical	-11.7193
▁surrender	-11.7193
▁tiger	-11.7193
▁uniform	-11.7193
▁అలసటతో	-11.7193
▁అసభ్య	-11.7193
▁ఉంగరం	-11.7193
▁కౌబాయ్	-11.7193
▁గర్భవతి	-11.7193
▁గుంపు	-11.7193
▁గుసగుసలాడ	-11.7193
▁జన్మించాను	-11.7193
▁జన్మించిన	-11.7193
▁టౌన్	-11.7193
▁దిగుమత	-11.7193
▁నాయకుడు	-11.7193
▁నివేదించ	-11.7193
▁పరిమితి	-11.7193
▁పేకాట	-11.7193
▁పైజామా	-11.7193
▁ప్రత్యక్ష	-11.7193
▁ప్రొఫెషనల్	-11.7193
▁బట్టతల	-11.7193
▁భయానక	-11.7193
▁మునుపటి	-11.7193
▁మెషీన్	-11.7193
▁మేధావి	-11.7193
▁రుమాలు	-11.7193
▁వారాంతాల్లో	-11.7193
▁స్థాయి	-11.7193
▁స్పృహ	-11.7193
▁స్వాధీనం	-11.7193
▁హాయ్	-11.7193
▁firm	-11.7193
▁forehead	-11.7193
▁నడుస్తూ	-11.7193
▁నలుపు	-11.7193
▁గిటారిస్ట్	-11.7193
▁వాటర్	-11.7193
▁ఇచ్చే	-11.7193
▁spell	-11.7193
▁ఆచరణాత్మక	-11.7193
▁వృద్ధుడి	-11.7193
▁హాట్	-11.7193
▁program	-11.7193
▁furious	-11.7193
▁ఇనుము	-11.7193
▁సమయస్ఫూర్తి	-11.7193
▁చాలామంది	-11.7193
▁నుదిటి	-11.7193
▁politics	-11.7193
▁హ్యారీ	-11.7193
▁ప్రపంచవ్యాప్త	-11.7193
▁shaking	-11.7193
▁షేవ	-11.7193
▁round	-11.7193
▁leak	-11.7194
▁skate	-11.7194
▁Day	-11.7194
▁shake	-11.7194
▁frequently	-11.7194
▁responsibility	-11.7194
▁నాణేల	-11.7194
▁gray	-11.7194
▁నైట్	-11.7194
▁కడుక్కోవాలి	-11.7194
▁CD	-11.7194
▁fog	-11.7194
▁teenager	-11.7195
▁తినిపించ	-11.7195
▁మాట్లాడుతాము	-11.7195
▁మానుకోవాల	-11.7195
▁పడితే	-11.7195
▁భయపడ్డారు	-11.7196
▁కార్న్	-11.7196
▁ఆపివేసాడు	-11.7196
▁అనకండి	-11.7196
▁cure	-11.7196
▁అరుస్తూ	-11.7196
▁నీడ	-11.7196
▁సంబంధించినది	-11.7197
▁బకెట్	-11.7197
▁సిరా	-11.7197
▁వదిలివేయవద్దు	-11.7198
▁నివసిస్తున్నాము	-11.7198
▁వెళ్ళకూడదు	-11.7198
▁దృశ్యం	-11.7198
▁fluently	-11.7199
▁pronounce	-11.7199
▁scarf	-11.7199
▁agreement	-11.72
▁పచ్చి	-11.72
▁blonde	-11.72
▁slightly	-11.7201
▁వెళ్లిపోయాడ	-11.7201
▁achieved	-11.7201
సారి	-11.7201
▁రాగలరా	-11.7202
▁అడిగ	-11.7202
▁రాలేడు	-11.7203
▁తొందరపడండి	-11.7203
▁చర్మం	-11.7203
▁ఈదుకున్నా	-11.7203
▁తింటున్నాడు	-11.7204
▁తీసుకువెళతాను	-11.7205
▁పెదవుల	-11.7205
▁మనమే	-11.7206
▁స్కూల్లో	-11.7207
▁ఆనందించండి	-11.7207
▁కోల్పోతున్నాను	-11.7207
▁వింటున్నారా	-11.7208
▁వ్యవహరించడం	-11.7208
▁తెలివైనది	-11.7208
▁నివసించలేద	-11.721
▁అడుగులు	-11.7212
▁భుజాల	-11.7212
▁poisoned	-11.7213
▁స్వార	-11.7213
▁సంగీతకారుడు	-11.7214
▁admired	-11.7214
zing	-11.7218
ాలనుకుంటుంది	-11.7219
▁తొలగించాడు	-11.7219
▁tense	-11.722
▁messages	-11.722
▁చెప్పకుండా	-11.7221
▁నిద్రపోయారు	-11.7221
పెట్టింది	-11.7226
▁ధరించాను	-11.7228
▁కాల్స్	-11.7231
▁మాట్లాడగలరు	-11.7234
▁rainy	-11.7234
▁తుడుచుకున్నా	-11.7235
▁discussing	-11.7237
తే	-11.7238
▁అంగీకరిస్తాడు	-11.7239
▁గొప్పది	-11.724
▁తెచ్చుకో	-11.7246
▁వినరు	-11.7249
▁వెనుకకు	-11.7255
▁నేర్పించిన	-11.7259
▁మాట్లాడకూడదు	-11.7259
▁చేసుకున్నారా	-11.726
▁అతిథులు	-11.7261
▁మొక్కల	-11.7265
▁వాస్తవాలు	-11.7265
▁fully	-11.7265
▁ఆడాను	-11.7265
owed	-11.7269
కట్	-11.7277
▁సరస్సులో	-11.7277
▁coins	-11.7279
▁adults	-11.7283
▁తిరగ	-11.7284
▁weighs	-11.7285
సాడు	-11.7288
ay	-11.7296
▁సందేహాల	-11.7303
▁వ్యాపారంలో	-11.7303
దో	-11.7304
▁దయగల	-11.7304
▁బోర్డు	-11.731
▁రాకూడద	-11.7326
▁వద్దా	-11.733
▁ఆరాధిస్తా	-11.7332
▁చెప్పాడో	-11.7346
▁వ్యాఖ్యల	-11.7348
▁fork	-11.7358
▁ఏడుస్తున్నాడ	-11.7362
▁habits	-11.7367
▁ఉన్నవ	-11.7372
▁కావాలనుకుంట	-11.7373
▁తప్పించుకోవ	-11.7387
▁opening	-11.7389
స్తాము	-11.7396
▁మరమ్మతు	-11.7401
ak	-11.7402
▁ఖా	-11.7405
స్తాను	-11.7408
ాంగ్	-11.7414
▁నాణ	-11.7435
రందరూ	-11.744
▁pan	-11.7446
▁వాతావరణంలో	-11.7452
▁చూస్తున్న	-11.7456
▁decisions	-11.7463
▁పాఠాల	-11.747
use	-11.7472
▁చెప్పలేడ	-11.7481
▁object	-11.7485
oc	-11.7489
▁lovely	-11.7492
▁విరిచాడ	-11.7503
▁ప్రయత్నించాల	-11.7514
▁novels	-11.7518
▁ఏమ	-11.7521
▁దాటి	-11.7527
▁పెన్	-11.7529
▁fi	-11.753
▁lines	-11.7538
▁తాగలేద	-11.7541
▁చేరుకుంటా	-11.7551
▁reasons	-11.7553
▁చె	-11.7554
▁players	-11.7555
▁risks	-11.7556
బడిన	-11.7568
▁falls	-11.7576
▁విచారకర	-11.7576
▁గతం	-11.7578
▁skip	-11.7586
▁ద్వీప	-11.7593
▁బయలుదేరుతున్నా	-11.7595
ింప	-11.7616
ందో	-11.7622
▁ఆవు	-11.7624
minded	-11.7628
▁పెరుగుతున్న	-11.7628
▁error	-11.7629
▁రీ	-11.763
▁snake	-11.7631
▁coin	-11.7632
▁పరిస్థితుల	-11.7636
▁extra	-11.765
▁ప్రస్తావించ	-11.7651
though	-11.7652
thirty	-11.7652
▁చెప్పినందు	-11.7654
▁నిర్వహిస్తా	-11.7664
▁చేయబోతున్నాన	-11.7665
▁నమ్ముతా	-11.7667
గలిగాడు	-11.7671
▁తోలు	-11.7674
య్యాయి	-11.7681
▁విరుద్ధం	-11.7685
▁ఒంటరి	-11.7686
▁దొంగిలించార	-11.7697
▁ignor	-11.7699
▁గుర్తుంచుక	-11.7702
▁retire	-11.7703
▁improve	-11.7703
▁deliver	-11.7707
▁prevent	-11.7707
▁frighten	-11.7707
nna	-11.771
▁సరిపోతుంద	-11.7711
▁incredibl	-11.7715
▁ఇబ్బందుల	-11.7719
విధ	-11.7719
▁గుర్రాల	-11.7719
▁self	-11.7719
▁అసహ్యం	-11.7719
▁ఉత్పత్తుల	-11.7719
▁కత్తెర	-11.7719
▁కుందేళ్ళ	-11.7719
▁నిర్లక్ష్యం	-11.7719
▁వాసే	-11.7719
▁Check	-11.7719
▁bleeding	-11.7719
▁brief	-11.7719
▁carpenter	-11.7719
▁ceremony	-11.7719
▁conduct	-11.7719
▁desperate	-11.7719
▁despise	-11.7719
▁discount	-11.7719
▁exciting	-11.7719
▁incident	-11.7719
▁insane	-11.7719
▁material	-11.7719
▁mild	-11.7719
▁misunderstood	-11.7719
▁narrow	-11.7719
▁pepper	-11.7719
▁pregnant	-11.7719
▁pulse	-11.7719
▁puppy	-11.7719
▁scissors	-11.7719
▁strength	-11.7719
▁whistle	-11.7719
▁అంగీకరిస్తాన	-11.7719
▁అందగత్తె	-11.7719
▁ఎలుగుబంటి	-11.7719
▁కొవ్వొత్తి	-11.7719
▁గెలుస్తాన	-11.7719
▁దిండు	-11.7719
▁పక్కింటి	-11.7719
▁పద్ధతి	-11.7719
▁పైకెత్త	-11.7719
▁పొయ్యి	-11.7719
▁భాగస్వామి	-11.7719
▁మొదలుపెట్టాను	-11.7719
▁యూనిఫాం	-11.7719
▁సమాధి	-11.7719
▁hidden	-11.772
▁method	-11.772
▁property	-11.772
▁split	-11.772
▁ఎంచుకోండి	-11.772
▁తిట్ట	-11.772
▁మెచ్చుకున్నా	-11.772
▁millionaire	-11.772
▁snore	-11.772
▁కలవరపెట్ట	-11.772
▁దిగువ	-11.772
▁devote	-11.772
▁haircut	-11.772
▁gym	-11.772
▁మొదల	-11.772
▁కనెక్	-11.772
▁occurred	-11.772
▁మౌంట	-11.772
▁track	-11.772
▁honey	-11.772
▁stress	-11.772
SA	-11.772
▁ఎప్పటికప్పుడు	-11.772
▁అయినప్పటికీ	-11.772
▁swimmer	-11.772
▁punch	-11.772
▁impressive	-11.772
▁rise	-11.772
▁Mexico	-11.772
▁చనిపోయినప్పుడు	-11.7721
▁secretary	-11.7721
▁మరి	-11.7721
▁గొ	-11.7721
▁issue	-11.7721
▁పచ్చిక	-11.7722
▁annoying	-11.7722
▁sub	-11.7722
▁చెబుతుంది	-11.7722
▁ఉండిపోయాడు	-11.7723
▁దశ	-11.7723
▁సిప్	-11.7724
▁సరైనవాడు	-11.7724
▁వెళ్ళబోతున్నాను	-11.7724
▁నయం	-11.7724
▁scary	-11.7724
▁incredible	-11.7724
▁గ్రహించాను	-11.7724
▁ఆశ్చర్యానికి	-11.7725
▁పాడతా	-11.7726
▁menu	-11.7726
▁కోరారు	-11.7729
▁బెదిరించాడు	-11.7729
▁నొక్కండి	-11.773
▁ఆదేశించాడు	-11.773
▁చదువుకోవడం	-11.773
▁gain	-11.7731
▁మతం	-11.7732
▁మెక్సికో	-11.7732
▁warmer	-11.7733
▁చూసినట్లు	-11.7733
▁boxes	-11.7733
▁murderer	-11.7734
▁పరిగెత్తడం	-11.7734
▁personally	-11.7735
▁మానేశాను	-11.7735
▁improved	-11.7736
▁బ్రీ	-11.7736
▁చనిపోలేదు	-11.7736
▁నాటకం	-11.7737
▁పొందగలను	-11.7738
▁served	-11.7739
▁pleasant	-11.774
▁ఆఫీసు	-11.774
▁rescued	-11.774
▁clouds	-11.7741
▁ఉండిపోయాను	-11.7742
▁నివసించేవాడు	-11.7742
్రేడ్	-11.7743
▁నవలలు	-11.7744
▁అడుగుతున్నారు	-11.7745
▁మాట్లాడలేరు	-11.7746
▁pounds	-11.7746
▁సహేతుకమైన	-11.7748
▁maybe	-11.7748
▁సంబంధాలు	-11.7748
▁కనుగొంటాము	-11.7749
▁మరచిపోయ	-11.775
▁loan	-11.775
▁కాల్చారు	-11.7753
▁పెట్టండి	-11.7753
▁కత్తిరించా	-11.7756
▁వినాలి	-11.7757
▁ఆయుధాలు	-11.7757
▁సరైనవారు	-11.7758
▁భాషలలో	-11.7758
▁ఆపి	-11.7761
▁డీ	-11.7762
▁కొట్టాను	-11.7765
▁rely	-11.7768
▁ఏడుస్తాడ	-11.7772
▁foreigners	-11.7772
▁upon	-11.7774
▁మామ	-11.7779
▁కోల్పోలేద	-11.7779
▁గోడల	-11.778
▁అమెరికన్లు	-11.7783
▁However	-11.7784
▁చేసుకుంటారు	-11.7784
▁deserved	-11.7787
▁experienced	-11.7788
lip	-11.7789
▁మరెవరిక	-11.779
▁జరగలేద	-11.7791
▁safely	-11.7793
▁ఉపయోగిస్తా	-11.7798
▁ధైర్య	-11.7804
▁వాడిన	-11.7808
▁సరిపో	-11.7811
▁కొట్టగలడు	-11.7816
▁weekends	-11.7817
▁dated	-11.7818
▁cigarettes	-11.7824
▁Gra	-11.7825
▁పోగొట్టుకున్నా	-11.7826
national	-11.7829
acted	-11.783
▁స్నేహితుడికి	-11.7835
▁చెప్తున్నా	-11.7835
▁lessons	-11.7844
▁dish	-11.7846
పోయాను	-11.7851
▁గెలవలేదు	-11.7858
▁పుస్తకంలో	-11.7863
▁చీకటిలో	-11.7863
▁ముగించా	-11.7864
▁అసూయపడ	-11.7864
▁కనుగొనలేర	-11.7869
▁weapons	-11.7874
▁Man	-11.788
▁గర్వపడ	-11.79
▁భయపడతాడ	-11.7908
మర్	-11.791
▁వెండి	-11.7912
ామో	-11.7928
▁వెళ్ళలేద	-11.7928
▁మాట్లాడుతున్నామ	-11.794
ray	-11.7947
లె	-11.7951
▁ఉండు	-11.7956
▁సాధించాడ	-11.7964
▁పగ	-11.7966
▁తీసుకురావ	-11.7967
▁తాగుతున్నా	-11.7978
▁ఫై	-11.7979
row	-11.7986
▁Ma	-11.799
▁ఇద్దరిన	-11.7995
▁bush	-11.7995
తున్నట్లు	-11.8001
▁వదులుకోవ	-11.8005
gu	-11.8006
▁ink	-11.8014
▁కె	-11.8014
▁మరణించాడ	-11.8015
▁వెళ్ళిపో	-11.8021
కిచె	-11.8022
▁సాధ్యమే	-11.8032
కే	-11.8033
▁షధ	-11.8035
టింగ్	-11.8037
ున్నాడ	-11.8039
▁అవమాన	-11.8041
▁శిక్షించ	-11.8048
పీ	-11.8058
▁తొలగించబడ	-11.8068
▁వ్యతిరేక	-11.8097
▁రాను	-11.8105
ింక్	-11.8106
▁ఉంచవద్ద	-11.8116
▁రాయాల	-11.813
▁చెప్త	-11.8165
ood	-11.8171
▁కవి	-11.8178
▁effort	-11.8186
▁twin	-11.8186
▁cow	-11.8187
▁జన్మ	-11.8195
▁నడవగల	-11.8202
▁సోదరుల	-11.8203
▁smokes	-11.8205
వైపు	-11.8207
స్పష్టంగా	-11.8208
రాత్రి	-11.8208
▁మైళ్ళ	-11.8213
▁ఆఫీస	-11.8215
▁జన్మించాడ	-11.8215
▁సోదరీమణుల	-11.8215
▁గి	-11.8224
▁Na	-11.8225
కపోయినా	-11.8226
▁మెరుగుపడ	-11.8227
ాతీ	-11.8228
▁దొరకద	-11.8235
▁increase	-11.8258
▁regrets	-11.8262
ప్పుడల్లా	-11.8263
▁వారాంత	-11.8264
▁జరుగుతోంద	-11.8265
▁ముగిసింద	-11.8265
▁sink	-11.8267
▁కష్టపడ్డా	-11.8267
▁direct	-11.8267
▁flow	-11.8268
▁సగటు	-11.8273
housand	-11.8274
▁trap	-11.8275
్వినియోగం	-11.8275
▁Birds	-11.8275
▁Cookie	-11.8275
▁Harvard	-11.8275
▁actress	-11.8275
▁bluffing	-11.8275
▁briefcase	-11.8275
▁character	-11.8275
▁cherr	-11.8275
▁command	-11.8275
▁eighteen	-11.8275
▁grandparents	-11.8275
▁helmet	-11.8275
▁intrigued	-11.8275
▁journalist	-11.8275
▁luggage	-11.8275
▁path	-11.8275
▁pipe	-11.8275
▁popcorn	-11.8275
▁rapidly	-11.8275
▁silver	-11.8275
▁strike	-11.8275
▁talkative	-11.8275
▁temple	-11.8275
▁ఆనందిస్తాడు	-11.8275
▁ఇటాలియన్	-11.8275
▁ఉచ్చు	-11.8275
▁ఉపశమనం	-11.8275
▁ఏడుస్తూ	-11.8275
▁కష్టతరమైన	-11.8275
▁చిట్కా	-11.8275
▁నమ్మశక్యం	-11.8275
▁మిరియాలు	-11.8275
▁సరఫరా	-11.8275
▁హెల్మెట్	-11.8275
▁Italian	-11.8275
▁carrots	-11.8275
▁earrings	-11.8275
▁leather	-11.8275
▁అగ్లీ	-11.8275
▁అరటిపండ్ల	-11.8275
▁కొవ్వు	-11.8275
▁జామ్	-11.8275
▁నానమ్మ	-11.8275
జాతీయ	-11.8275
▁అవుట్	-11.8275
FO	-11.8275
▁తడిసిపోయ	-11.8275
▁నమోద	-11.8275
▁lottery	-11.8275
▁ల్యా	-11.8275
▁జిమ్	-11.8275
▁South	-11.8275
▁నిధి	-11.8275
▁నిరోధించ	-11.8275
▁వెళితే	-11.8275
▁పోశాడు	-11.8275
▁దూకుడు	-11.8275
▁maid	-11.8275
▁beginner	-11.8275
▁score	-11.8276
▁సర్వ	-11.8276
▁నిద్రపోతాను	-11.8276
▁pink	-11.8276
▁మోగినప్పుడు	-11.8276
▁ఫలించలేదు	-11.8276
▁అనుమానించాడ	-11.8276
పార్ట్	-11.8276
▁taxes	-11.8276
▁మానేశారు	-11.8277
▁పట్టుకుంది	-11.8277
▁ట్యూన్	-11.8277
▁కరిచింది	-11.8278
▁wheel	-11.8278
▁చింతిస్తున్నాము	-11.8278
▁eyesight	-11.8279
▁complaints	-11.8279
▁1,000	-11.8279
త్వం	-11.8279
▁చంద్రుడ	-11.828
▁గుర్తుంచుకోవడం	-11.828
▁గడుపుతాడు	-11.828
▁Cats	-11.828
▁swore	-11.828
▁నేర్చుకోలేదు	-11.8281
▁shouted	-11.8281
▁హెచ్చరించాను	-11.8283
▁తొక్కడం	-11.8283
▁పైపు	-11.8283
▁కలుస్తాము	-11.8283
▁propose	-11.8284
▁barking	-11.8284
▁fastest	-11.8284
▁చెప్పబోతున్నాను	-11.8286
▁youngest	-11.8288
▁prevented	-11.8288
▁కోరుతున్నాను	-11.8289
▁income	-11.8289
▁కొనవలసిన	-11.8289
▁మనోహరమైన	-11.829
▁పిండి	-11.829
▁వెతుకుతున్నాను	-11.8293
▁పిరికివాడు	-11.8294
ెండర్	-11.8295
▁చేయగలిగాడు	-11.8297
▁దేశాలలో	-11.8299
▁చెందుతాడు	-11.8299
▁వస్తున్నాను	-11.8301
▁higher	-11.8302
▁అదుపులో	-11.8303
▁పర్యాటకుల	-11.8303
▁తింట	-11.8304
▁కాల్చిన	-11.8304
▁తీసింది	-11.8308
▁total	-11.8309
▁ఆపలేదు	-11.8309
పెట్టుకోవడం	-11.8311
▁విరుద్ధంగా	-11.8311
తప్పించుకున్నాడు	-11.8315
▁పెద్దవి	-11.8316
▁painter	-11.8318
▁imp	-11.8319
▁అలసిపోలేదు	-11.832
▁చదువుతున్నారు	-11.8321
▁గౌరవిస్తాను	-11.8322
▁బార్న్	-11.8322
▁ఫైల్	-11.8323
▁స్త్రీలు	-11.8325
▁దాక్కున్నా	-11.8325
ax	-11.833
▁అందం	-11.8332
▁chosen	-11.8334
▁grades	-11.834
▁వర్షప	-11.8342
▁అందమైనది	-11.8342
▁అంగీకరించడు	-11.8344
▁నిర్మాణం	-11.8348
▁కనుగొంటార	-11.835
▁విఫలమయ్యాడ	-11.8351
▁Won	-11.8354
▁qu	-11.8355
▁products	-11.8355
▁దేశాలు	-11.8357
▁ఏడుస్తున్నాడు	-11.8359
సన్	-11.8361
▁దొరకలేద	-11.8368
▁rod	-11.8374
▁నిరాశపరిచ	-11.8379
▁Li	-11.8383
▁tied	-11.8383
▁పిలుస్తున్నా	-11.8383
ign	-11.8384
▁అర్హుడ	-11.8386
▁ఆటలు	-11.8387
▁విశ్వవిద్యాలయం	-11.8401
▁నష్టాల	-11.8414
▁ఎక్కడున్నా	-11.842
ton	-11.8421
▁గెలుస్తాడు	-11.8421
▁తీసుక	-11.8423
▁meals	-11.8423
▁వినాల	-11.8426
▁స్నేహితులలో	-11.8426
ుతున్నప్పుడు	-11.844
▁విమానాల	-11.8444
▁regrett	-11.8462
▁ఆవుల	-11.8472
▁నిద్రపోతున్నార	-11.8473
▁photos	-11.8475
▁పనిచేస్త	-11.8476
▁forgiven	-11.849
▁రుద్ద	-11.8506
▁lawn	-11.8509
లెట్	-11.851
▁మంచంలో	-11.851
rop	-11.8514
▁తీసుకుంటార	-11.8515
▁shoulders	-11.854
▁పక్క	-11.8554
గలవా	-11.8554
▁విరిగిపోయ	-11.8561
▁ఏం	-11.8562
▁చేసింద	-11.8565
▁తినలేన	-11.8574
▁లతో	-11.8576
గలిగిన	-11.8603
▁అలసిపోయి	-11.8618
▁చేయబడ	-11.8618
bb	-11.862
బడదు	-11.8622
▁Ne	-11.8625
ందంగా	-11.8627
▁bills	-11.8628
▁ఉద్రిక్త	-11.863
▁చూడగలర	-11.8633
▁ఏడుస్తుంద	-11.8637
▁హాస్య	-11.8648
గో	-11.865
టారు	-11.8654
▁తాగుతున్నాడ	-11.8654
▁తీసుకుంటామ	-11.8659
▁walls	-11.8666
▁పదును	-11.867
▁జన	-11.8691
▁బాగున్న	-11.8693
▁గొప్పగా	-11.8697
▁పత్ర	-11.8705
స్కో	-11.8707
ah	-11.8712
▁నియమించుకున్నా	-11.8715
▁అల్ల	-11.8724
ache	-11.8742
fairly	-11.8744
▁చెప్పవచ్చ	-11.8746
one	-11.8747
▁జె	-11.875
▁కొడతా	-11.8756
▁ఇష్టపడన	-11.8757
▁ఆకట్టుకో	-11.8765
▁దూర	-11.8766
▁భాషల	-11.8767
నిర్ణయించుకోవాలి	-11.8772
▁starv	-11.8773
▁relative	-11.8774
ches	-11.8775
▁అబ్బాయిని	-11.8776
▁పన్నుల	-11.8778
▁విఫల	-11.8779
▁ఏళ్ల	-11.878
▁చేయబోతున్నార	-11.8783
▁ఓడిపో	-11.8789
work	-11.879
ముప్పై	-11.8796
300	-11.8796
▁నిజాయితీపరుడ	-11.8802
▁టిక్కెట్ల	-11.8803
▁మర్చిపోయాన	-11.8804
▁కోల్పోయాన	-11.8804
▁చెప్పకూడద	-11.8809
▁వెళ్ళలేర	-11.8811
▁నువ్వ	-11.8815
పడుతుందా	-11.8817
▁పెద్దవాడ	-11.8818
▁పిచ్చివాడ	-11.8823
▁సంచి	-11.883
▁పొందవచ్చ	-11.8834
▁stare	-11.8838
▁cough	-11.8841
▁knock	-11.8842
చ్చింది	-11.8843
▁ఏనుగు	-11.8845
▁puzzle	-11.8847
▁ప్రస్తుత	-11.8847
▁విసిరా	-11.885
▁పడుకోవ	-11.8853
▁ఆశ్చర్యపో	-11.8856
▁fluent	-11.8857
▁అసాధారణమైన	-11.886
▁మారుతుంద	-11.886
▁knit	-11.8861
▁ఆలోచిస్తున్నార	-11.8862
▁alcohol	-11.8863
▁shall	-11.8863
▁విశ్వ	-11.8863
▁మృతదేహాన	-11.8863
▁absorb	-11.8863
▁contradict	-11.8863
లంచం	-11.8863
వాళ్లం	-11.8863
ాపకశక్తి	-11.8863
▁absence	-11.8863
▁affair	-11.8863
▁ambitious	-11.8863
▁century	-11.8863
▁conservative	-11.8863
▁content	-11.8863
▁dizzy	-11.8863
▁entrance	-11.8863
▁granted	-11.8863
▁impolite	-11.8863
▁located	-11.8863
▁rejected	-11.8863
▁religious	-11.8863
▁response	-11.8863
▁ఆర్టిస్ట్	-11.8863
▁ఆహ్లాదకర	-11.8863
▁చెల్లెలు	-11.8863
▁జూదం	-11.8863
▁నిష్క్రమణ	-11.8863
▁ప్రాజెక్టు	-11.8863
▁ప్రేరణ	-11.8863
▁ప్రైవేటు	-11.8863
▁ఫ్యాక్టరీ	-11.8863
▁బొగ్గు	-11.8863
▁ముసలివాడ	-11.8863
▁మొగ్గు	-11.8863
▁యువరాణి	-11.8863
▁రొమాంటిక్	-11.8863
▁వీలైతే	-11.8863
▁శారీరక	-11.8863
▁సభ్యుడు	-11.8863
▁హాస్యమాడుతున్నా	-11.8863
▁data	-11.8863
▁mask	-11.8863
▁కరిగ	-11.8863
▁బాలురు	-11.8863
▁రిజర్వ	-11.8863
▁Dad	-11.8863
▁dumb	-11.8863
▁dai	-11.8863
▁కిల్లర్	-11.8863
▁imagination	-11.8863
▁గీయ	-11.8863
▁ప్రతిష్టాత్మక	-11.8863
నుగుణ	-11.8863
▁మూర్ఖుడి	-11.8863
▁ఆలోచిస్తాడు	-11.8863
▁లాటరీ	-11.8863
▁construction	-11.8863
▁చేస్తున్నాం	-11.8863
▁logical	-11.8863
▁importance	-11.8864
▁peel	-11.8864
▁authority	-11.8864
▁princess	-11.8864
▁నిద్రపోతాడు	-11.8864
▁చెందినవారు	-11.8864
▁బ్రెడ్	-11.8864
▁band	-11.8864
▁statement	-11.8864
▁blackboard	-11.8864
▁fought	-11.8864
▁విధించబడింది	-11.8864
▁మసా	-11.8865
▁జరుగుతాయి	-11.8865
▁మూయ	-11.8865
▁robbery	-11.8865
▁Soon	-11.8865
▁రాకపోవచ్చు	-11.8866
▁ప్రస్తావించలేదు	-11.8867
unk	-11.8867
▁ఆకట్టుకున్నాను	-11.8867
▁చెప్పగలడు	-11.8867
▁మగ	-11.8868
▁ఇష్టపడుతుంది	-11.8868
▁అమ్ముతారు	-11.8868
▁టవర్	-11.8868
▁చేసేవాడు	-11.8868
▁mission	-11.8869
▁నెలల్లో	-11.8869
▁kindness	-11.8869
▁మొండి	-11.8869
▁వదులుకున్నాడు	-11.8869
▁spoiled	-11.887
▁చెడ్డవాడు	-11.887
▁ఉన్నావు	-11.8871
▁చిక్కుకున్నాను	-11.8871
▁ఇదేనా	-11.8871
▁ఆశ్చర్యపరిచ	-11.8871
▁గ్యారేజీలో	-11.8872
▁వెళ్ళనివ్వండి	-11.8872
▁ఫ్లూ	-11.8872
▁లేవాలి	-11.8872
▁కుర్రాళ్ళు	-11.8873
▁gathered	-11.8873
▁coughing	-11.8873
▁knocking	-11.8873
▁చెప్పేవాడు	-11.8873
▁అమ్ముతా	-11.8874
▁కోల్పోవాలన	-11.8874
▁objection	-11.8875
▁makeup	-11.8875
▁embarrassed	-11.8875
పాటి	-11.8875
▁వినలేను	-11.8875
▁మూ	-11.8877
▁లేస్తాడు	-11.8877
▁మూత	-11.8878
▁పనిచేయాలి	-11.8879
▁screaming	-11.888
▁ప్రాంతంలో	-11.888
▁నేర్చుకుంటారు	-11.8883
▁tune	-11.8883
▁కొనలేను	-11.8883
▁ability	-11.8883
▁hopeless	-11.8884
▁shooting	-11.8884
▁screamed	-11.8885
▁విమానాశ్రయం	-11.8885
▁మారలేదు	-11.8887
▁మార్చుకో	-11.8887
▁కోరుకుంటున్నారా	-11.8887
▁చూడాలనుకున్నాడు	-11.8888
▁పడ్డారు	-11.8889
▁watches	-11.889
▁జరగబోతోంది	-11.8891
▁ప్రయత్నించాము	-11.8892
▁frozen	-11.8892
▁చేయగలం	-11.8895
▁అడుగుతారు	-11.8897
▁పంచుకుంటా	-11.89
▁అడిగినద	-11.89
▁వేస	-11.89
▁కవలలు	-11.8903
▁homeless	-11.8903
▁ఇస్తారు	-11.8904
▁స్టాక్	-11.8906
▁సందర్శించారు	-11.8908
▁చెందుతున్న	-11.8908
▁వేసుకున్నా	-11.8908
▁దారిలో	-11.8909
▁imagined	-11.8916
▁తాగారు	-11.8922
▁counting	-11.8924
▁గాయ	-11.8925
▁bags	-11.8926
▁న్యాయమైనద	-11.8927
▁నిద్రపోతున్నారు	-11.893
▁పత్రాల	-11.8931
▁ఉండబోతున్నాడ	-11.8931
▁తినవచ్చు	-11.8934
▁Any	-11.8935
▁customers	-11.8938
anc	-11.8943
▁చనిపోయార	-11.8943
▁ఫోటోల	-11.8945
▁killer	-11.8949
▁dreaming	-11.895
▁క్షణంలో	-11.8952
▁relatives	-11.8954
▁కంగారు	-11.8961
▁రాగల	-11.8966
▁సముద్రంలో	-11.8967
కపోవ	-11.8975
▁వేయించ	-11.8976
▁ఎలుకల	-11.8979
▁మార్పుల	-11.8981
▁వింటున్న	-11.8988
▁painful	-11.9006
▁danced	-11.9007
▁వాదన	-11.9025
▁నిలబెట్ట	-11.9027
▁cousins	-11.9031
▁ఆనందించార	-11.9033
▁పట్టుకుంటా	-11.905
▁బయ	-11.9061
▁ఆశ్చర్య	-11.9063
▁poems	-11.9065
▁అలసిపోత	-11.907
▁ప్రయాణ	-11.907
▁మత	-11.9075
▁చివరల	-11.9087
▁చేసార	-11.9088
▁మనిషికి	-11.9096
▁అభిప్రాయాల	-11.9108
▁మాన్	-11.9115
▁చెల్లించలేద	-11.9133
▁వర్షా	-11.9135
▁ప్రమాదాల	-11.9135
▁కన	-11.9137
▁ఎగురుత	-11.9155
▁చదువుతున్నాడ	-11.9162
గలిగాను	-11.9164
▁Du	-11.9175
▁మనమ	-11.9178
▁చనిపోతాడ	-11.9178
▁వేలాడదీయ	-11.9179
atch	-11.9179
ంబ	-11.9186
▁నమ్ముతార	-11.9186
▁హించని	-11.9189
▁అనుమతించలే	-11.9191
rag	-11.9191
▁కోస	-11.9194
▁కవల	-11.9195
▁sip	-11.9196
▁బయలుదేరాల్సి	-11.9209
▁rec	-11.9211
▁గుడ్	-11.9218
హ్	-11.924
appeared	-11.9241
▁నటిస్తా	-11.9246
ially	-11.9247
▁వెళ్తున్న	-11.9248
▁res	-11.9256
▁వస	-11.9261
▁సురక్షిత	-11.9263
▁వెళ్లిపోయ	-11.9263
▁ఇంకొక	-11.9264
▁underestimate	-11.9267
▁ఫ్ల	-11.9299
▁సై	-11.9302
▁దిశ	-11.9303
▁కలుసుకున్నాన	-11.9314
▁ఓడించ	-11.9315
▁smiles	-11.9325
ున్నారా	-11.9334
▁ఉన్నానా	-11.9342
▁నిర్వహించగల	-11.9345
▁విఫలమయ్య	-11.9348
మైనవి	-11.9358
▁తీసుకోవలసి	-11.9359
▁రాలే	-11.9361
▁తేదీన	-11.9362
▁శబ్ద	-11.9362
▁చెప్పలేమ	-11.9363
▁ప్రేమించలేద	-11.9365
▁ఏడవడ	-11.9373
▁ప్రతిదాని	-11.9377
ుకుంటున్నాడు	-11.9381
▁చూసుకోవ	-11.9382
cated	-11.9384
▁బోర్డ	-11.9389
ime	-11.9398
▁product	-11.9398
▁పారిపో	-11.94
కోవాలనుకుంటాడు	-11.9405
▁బ్యాటరీ	-11.9418
▁బయలుదేరుతున్నార	-11.942
M	-11.9421
looking	-11.9421
C	-11.9421
H	-11.9421
చేసిన	-11.9422
▁విధాన	-11.9422
▁log	-11.9425
న్లు	-11.943
పద	-11.9433
▁గౌరవిస్తా	-11.9436
▁effect	-11.9436
▁లెక్కించవచ్చ	-11.9437
▁ప్రారంభిస్తా	-11.9444
▁laughs	-11.9452
▁పోరాట	-11.9456
▁bribe	-11.9459
▁గ్రామ	-11.9461
▁శిక్షించబడ	-11.9466
▁ఒప్పంద	-11.9476
▁embarrass	-11.9476
▁సంబంధించిన	-11.9477
▁నిశ్చితార్థ	-11.9478
▁గ్రామం	-11.948
▁bark	-11.9481
▁ఉడకబెట్ట	-11.9483
▁బోధించ	-11.9483
▁పొందిన	-11.9484
▁శుభ్ర	-11.9485
▁గొర్రెల	-11.9485
వాళ్ళం	-11.9487
▁ప్రచురించ	-11.9488
▁గొడ్డ	-11.9488
▁blank	-11.9488
▁swallow	-11.9488
▁పాల్పడ	-11.9488
▁విజయవంతమై	-11.9488
రచాలన	-11.9488
▁April	-11.9488
▁FBI	-11.9488
▁February	-11.9488
▁Lincoln	-11.9488
▁Santa	-11.9488
▁Suddenly	-11.9488
▁Washington	-11.9488
▁apology	-11.9488
▁battery	-11.9488
▁cellphone	-11.9488
▁consult	-11.9488
▁dried	-11.9488
▁handcuffed	-11.9488
▁handkerchief	-11.9488
▁helicopter	-11.9488
▁ladies	-11.9488
▁lobby	-11.9488
▁possibility	-11.9488
▁postcard	-11.9488
▁regular	-11.9488
▁security	-11.9488
▁sensitive	-11.9488
▁smooth	-11.9488
▁society	-11.9488
▁task	-11.9488
▁traitor	-11.9488
▁treasure	-11.9488
▁volleyball	-11.9488
▁ఎలక్ట్రిక	-11.9488
▁కుతూహలం	-11.9488
▁కొంటారు	-11.9488
▁గొరుగుట	-11.9488
▁చెవిపోగులు	-11.9488
▁తమ్ముడు	-11.9488
▁తెరిచారు	-11.9488
▁దాయాదులు	-11.9488
▁దొరికిన	-11.9488
▁ద్రాక్ష	-11.9488
▁నివారణ	-11.9488
▁నిస్సహాయ	-11.9488
▁నూనె	-11.9488
▁పరిసరాల్లో	-11.9488
▁పెద్దయ్యాక	-11.9488
▁ప్రార్థన	-11.9488
▁ఫిబ్రవరి	-11.9488
▁ఫోటోగ్రాఫర్	-11.9488
▁రిజర్వేషన్	-11.9488
▁లాబీ	-11.9488
▁వ్యాకరణ	-11.9488
▁సందర్శకుల	-11.9488
▁సమ్మె	-11.9488
▁సహకరించ	-11.9488
▁సాలెపురుగుల	-11.9488
▁సీరియ	-11.9488
▁సౌకర్యవంత	-11.9488
▁హెలికాప్టర్	-11.9488
▁appetite	-11.9488
▁mystery	-11.9488
▁stretch	-11.9488
▁అభినందించ	-11.9488
▁అమర్చ	-11.9488
▁ఆశ్రయించ	-11.9488
▁పొందుతాడు	-11.9488
▁రిలాక్స్	-11.9488
▁విభేదించ	-11.9488
▁decent	-11.9488
▁vain	-11.9488
▁నిలిచ	-11.9488
▁contest	-11.9488
▁protest	-11.9488
▁పలకరించ	-11.9488
▁బుష్	-11.9488
▁roommate	-11.9488
▁డోర్	-11.9488
▁మూర్ఖుడు	-11.9488
▁sum	-11.9488
▁చీమల	-11.9488
▁అడ్డుకుంది	-11.9488
▁చిందించ	-11.9488
▁స్నేహితురాలి	-11.9488
▁sunset	-11.9488
▁కురుస్తోంది	-11.9488
▁వాషింగ్టన్	-11.9488
▁mud	-11.9489
▁Internet	-11.9489
▁yard	-11.9489
▁అప్పుడే	-11.9489
▁punishment	-11.9489
▁June	-11.9489
▁కుడివైపు	-11.9489
▁మేయర్	-11.9489
▁టబ్	-11.9489
▁వారందర	-11.9489
▁Frankly	-11.9489
▁ఫోర్క్	-11.9489
▁గెలుచుకున్నాడు	-11.9489
▁నరాల	-11.9489
▁ఎన్నికయ్యా	-11.9489
▁unknown	-11.9489
▁పొరుగువాడు	-11.9489
▁చెప్పేదాని	-11.9489
▁2003	-11.9489
ుషీ	-11.9489
▁hello	-11.9489
▁పజిల్	-11.9489
▁వదిలించుకో	-11.9489
▁లీక్	-11.9489
▁foolish	-11.9489
▁stock	-11.9489
▁cage	-11.949
▁ధరిస్తున్నారు	-11.949
▁mushroom	-11.949
▁అరటి	-11.949
▁దాచిపెడుతున్నాడ	-11.9491
▁photographer	-11.9491
▁crew	-11.9491
▁రాతి	-11.9491
సుల	-11.9491
▁అంశం	-11.9491
▁rate	-11.9491
▁కడుక్కోవడం	-11.9492
▁కాలిపోయింది	-11.9492
▁గాలుల	-11.9493
▁అసాధారణమైనది	-11.9493
▁జూన్	-11.9493
లేర	-11.9493
▁వింటున్నాను	-11.9493
▁బోధిస్తాడు	-11.9493
▁cheated	-11.9494
▁స్ట్ర	-11.9494
▁తొందరపడాలి	-11.9494
▁కడుగుతాను	-11.9494
డెంట్	-11.9495
▁Wash	-11.9495
▁రావచ్చ	-11.9495
▁చేశాము	-11.9495
▁చదువుతూ	-11.9496
▁కలిసినప్పుడు	-11.9496
▁mathematics	-11.9497
బోతున్నాము	-11.9498
▁చేయబడ్డాడు	-11.9498
▁క్రాస్	-11.9499
▁డిస్క	-11.9499
▁disturbed	-11.9499
▁మార్చి	-11.9503
▁drawing	-11.9503
▁resources	-11.9503
▁టే	-11.9504
▁insulted	-11.9505
▁postponed	-11.9506
omic	-11.9507
▁ప్రేమిస్తున్నామ	-11.9507
▁తెస్తా	-11.9508
▁politely	-11.9508
▁bug	-11.9509
▁mayor	-11.9509
▁పొందుతారు	-11.951
▁సంపాదించడం	-11.9511
▁పీల్చుకున్నా	-11.9512
▁ప్రశ్నించ	-11.9512
▁వస్తున్నారా	-11.9513
▁ఖర్చవుతుంద	-11.9513
▁ఆశావాది	-11.9513
▁పెన్నులు	-11.9513
▁సూచించాడు	-11.9514
వస్తు	-11.9516
▁మారిపోయాడు	-11.9517
▁పరిష్కరించాలి	-11.9518
▁fate	-11.9518
▁ఉద్యానవనం	-11.952
▁మాత్ర	-11.952
▁అమాయకత్వ	-11.9521
ussian	-11.9525
unch	-11.9526
▁manners	-11.9526
▁charged	-11.9527
▁ధరించారు	-11.9528
▁అనిపిస్తుందా	-11.9529
▁మార్చారు	-11.9532
▁ప్లగ్	-11.9533
▁తాళం	-11.9533
▁నిరాశపడ్డా	-11.9534
▁కూర్చున్న	-11.9537
▁అడగరు	-11.9538
▁correctly	-11.9538
▁intended	-11.9539
▁ప్రేమించాడు	-11.9539
▁తగ్గించడానికి	-11.9539
▁ఎదుర్కొన్నా	-11.9542
▁గీస	-11.9544
దీ	-11.9544
పడకండి	-11.9547
▁విఫలమైంద	-11.9547
▁పోరాడుతున్నా	-11.9552
▁నిజాయితీపరుడు	-11.9554
▁ఉంచడం	-11.9554
▁pretending	-11.9556
▁మార్చుకున్న	-11.9558
▁Mars	-11.9562
▁దాటడానికి	-11.9564
▁వీర	-11.9564
▁కార	-11.9565
pan	-11.9567
గణనలో	-11.9567
▁చూసుకోగల	-11.9567
▁guessed	-11.957
▁అనుమతిస్తా	-11.9574
▁cleared	-11.9578
▁వ్రాస్తు	-11.958
▁height	-11.9581
▁చేసాడ	-11.9584
▁nails	-11.9585
టిల్	-11.9591
▁రాక	-11.9595
gin	-11.9596
▁జం	-11.9598
▁killing	-11.96
▁మారుస్త	-11.96
▁tourists	-11.9603
▁worrying	-11.9604
▁చిత్రంలో	-11.9608
▁పంచుకున్న	-11.9609
▁prisoners	-11.9611
▁సలహాలు	-11.9613
▁సాకు	-11.962
తరం	-11.9627
▁చెందింద	-11.9632
పడతారు	-11.9633
▁వేస్త	-11.9635
▁రూపం	-11.9643
▁నేరాల	-11.9644
▁legal	-11.9646
▁tooth	-11.9649
▁documents	-11.965
ోట్	-11.9654
పోవడమే	-11.9654
▁అడగవచ్చు	-11.9654
ok	-11.9654
▁కనిపిస్తున్నాన	-11.9661
▁చూపించడానికి	-11.9671
▁వేసి	-11.9676
▁నిర్ధారించ	-11.9685
▁గాయపడ్డా	-11.9689
▁wasted	-11.9696
▁చింతిస్తున్న	-11.9697
▁తెలుసుకోవాలనుకు	-11.9703
▁ఉద్దేశించ	-11.9711
▁మెరుపు	-11.9734
▁ఇవ్వవద్ద	-11.9735
▁తెలుసుకోగల	-11.9738
▁వాయించా	-11.9744
eal	-11.9752
▁ఖైదీల	-11.9754
▁పడే	-11.9765
nted	-11.9767
▁జపాన్లో	-11.9768
▁ఫ్ర	-11.9775
▁paintings	-11.9775
▁నిర్ణయించుకు	-11.9783
రై	-11.9796
ట్లయితే	-11.9799
▁మాట్లాడిన	-11.98
▁అండ	-11.9815
▁pockets	-11.9817
▁నడుస్తా	-11.983
pplied	-11.9856
▁తినవద్ద	-11.9856
▁oppose	-11.9866
▁grows	-11.9867
▁అంచున	-11.99
▁ఉండడ	-11.9902
▁వింట	-11.9912
▁ఇవ్వలే	-11.9915
▁నియమించుకోవాల	-11.9919
▁ఆగు	-11.9936
▁రుచికరమైన	-11.9955
యర్	-11.9958
▁నిండిన	-11.996
ిపోతుంది	-11.9961
మైంది	-11.9974
▁పంచుకో	-11.9987
▁జారి	-11.9988
▁తీసుకున్నార	-11.9988
▁aid	-11.9988
▁అనుమానించా	-11.9997
▁ధనవంతుల	-12.0023
▁తెరవవద్ద	-12.0034
▁నియమ	-12.004
▁సందర్శిస్త	-12.005
జిక్	-12.0052
▁అక్షర	-12.0057
▁అర్ధ	-12.0059
▁squirrel	-12.0064
nybody	-12.0064
▁direction	-12.0065
▁Ch	-12.0067
▁వస్తున్నార	-12.0069
▁సంపాదిస్త	-12.0071
రెస్	-12.0071
▁ఉపాధ్యాయుడి	-12.0072
▁వజ్ర	-12.0073
ఠా	-12.008
▁cl	-12.008
వడానికి	-12.0084
▁sides	-12.0086
room	-12.0086
లేకపోయా	-12.0093
cy	-12.0094
▁అంగీకరిస్తాడ	-12.0094
▁పిలుస్తాన	-12.0095
▁చేస్తామ	-12.0095
▁ఇష్టపడుతున్నాన	-12.0098
ిస్తాను	-12.0098
▁మాట్లాడకూడద	-12.0105
▁కేకు	-12.0105
place	-12.0109
▁చూస	-12.0113
▁స్పష్టం	-12.0122
▁వదులు	-12.0122
▁శరీర	-12.0122
▁చెవిటి	-12.0127
▁గుర్తించలే	-12.0128
▁తప్పిపోయ	-12.0131
▁తెలిసినట్లు	-12.0134
ified	-12.0135
వడ	-12.0136
▁స్కూల్	-12.0137
▁వైఫల్య	-12.0138
▁remove	-12.0139
▁postpone	-12.0139
▁అలసిపోయ	-12.014
▁సిద్ధాంత	-12.0142
▁mix	-12.0142
▁లేకపోవడం	-12.0144
▁యువత	-12.0145
▁ప్రాంతం	-12.0146
▁చంద్రుని	-12.0149
▁ఎదుర్కొంటున్న	-12.0153
▁తగిన	-12.0154
▁branch	-12.0154
▁అణు	-12.0154
▁చూసుకు	-12.0155
▁threat	-12.0155
▁brain	-12.0155
▁బచ్చలికూర	-12.0155
▁విధేయత	-12.0155
sleeve	-12.0155
ాంపియన్	-12.0155
▁Halloween	-12.0155
▁Hawaii	-12.0155
▁Learn	-12.0155
▁balance	-12.0155
▁barefoot	-12.0155
▁bargain	-12.0155
▁behaving	-12.0155
▁challenge	-12.0155
▁champion	-12.0155
▁chew	-12.0155
▁circumstances	-12.0155
▁compliment	-12.0155
▁conceal	-12.0155
▁conclusion	-12.0155
▁crisis	-12.0155
▁dedicate	-12.0155
▁fantastic	-12.0155
▁forecast	-12.0155
▁gradually	-12.0155
▁hockey	-12.0155
▁honeymoon	-12.0155
▁horizon	-12.0155
▁instrument	-12.0155
▁jewel	-12.0155
▁ladder	-12.0155
▁negotiations	-12.0155
▁pianist	-12.0155
▁quality	-12.0155
▁reliable	-12.0155
▁scolded	-12.0155
▁slice	-12.0155
▁victory	-12.0155
▁visa	-12.0155
▁volume	-12.0155
▁అరటిపండు	-12.0155
▁ఆకర్షణీయమైన	-12.0155
▁ఆశ్రయం	-12.0155
▁కళాకారుడు	-12.0155
▁కోపగించ	-12.0155
▁చవకైన	-12.0155
▁చెప్పినదంతా	-12.0155
▁టర్కీ	-12.0155
▁తిరుగుబాటు	-12.0155
▁నర్తకి	-12.0155
▁నిచ్చెన	-12.0155
▁నిరాశాజనక	-12.0155
▁నిశ్చయించుక	-12.0155
▁నేర్పుతాను	-12.0155
▁పంక్తుల	-12.0155
▁పంపిణీ	-12.0155
▁పియానిస్ట్	-12.0155
▁పుకార్ల	-12.0155
▁పైభాగం	-12.0155
▁పోలిస్తే	-12.0155
▁ప్రకాశవంతమైన	-12.0155
▁ప్రాథమిక	-12.0155
▁ప్రోగ్రామ	-12.0155
▁బ్లష్	-12.0155
▁భరోసా	-12.0155
▁మాట్లాడతారని	-12.0155
▁ముందుకొచ్చ	-12.0155
▁మెరుగుపరచ	-12.0155
▁రష్యన్	-12.0155
▁వాకిలి	-12.0155
▁వాల్యూమ్	-12.0155
▁విక్రయించ	-12.0155
▁వెయిట్రెస్	-12.0155
▁వేగవంతమై	-12.0155
▁వ్యాఖ్యానించ	-12.0155
▁శరదృతువు	-12.0155
▁శాస్త్రం	-12.0155
▁సందర్భం	-12.0155
▁సవతి	-12.0155
▁హనీమూన్	-12.0155
▁హాలోవీన్	-12.0155
▁overweight	-12.0155
▁పొందుతాను	-12.0155
▁విక్రయిస్త	-12.0155
▁వెనుకాడ	-12.0155
▁వేడెక్క	-12.0155
▁సైనికుడు	-12.0155
▁హాకీ	-12.0155
▁పాదం	-12.0155
▁వేలాడదీశా	-12.0155
▁హవాయి	-12.0155
▁congratulate	-12.0155
▁pessimistic	-12.0155
▁గార్డు	-12.0155
▁తెప్పించింది	-12.0155
▁చిన్నారి	-12.0155
▁స్వభావం	-12.0155
▁స్పష్టమైంది	-12.0155
▁master	-12.0155
▁solid	-12.0155
▁departure	-12.0155
▁వ్యాపారవేత్త	-12.0155
▁loose	-12.0155
▁కోల్పోయే	-12.0155
▁పెట్టుబడి	-12.0155
▁ముగిసిన	-12.0155
▁అర్ధంలేనిది	-12.0155
▁టెక్స్ట	-12.0155
▁యూని	-12.0155
▁tomatoes	-12.0155
▁waitress	-12.0155
▁వంగి	-12.0155
▁motion	-12.0155
▁assure	-12.0155
▁స్టిక్	-12.0155
▁వీసా	-12.0156
▁మూసివేస్త	-12.0156
▁సంపద	-12.0156
▁ఈతగాడు	-12.0156
వేవ్	-12.0156
uess	-12.0156
▁చేరుకున్నప్పుడు	-12.0156
▁యుగాల	-12.0156
▁పింక్	-12.0156
▁sank	-12.0156
▁base	-12.0156
▁బ్యాట్	-12.0156
▁stage	-12.0156
▁లేనందున	-12.0157
▁రాకెట్	-12.0157
▁వదిలించుకోవాల	-12.0157
▁కొరికింది	-12.0157
▁vari	-12.0158
▁నీచ	-12.0159
▁పిచ్చివాడిని	-12.0159
▁beaten	-12.0159
▁అప్పగించండి	-12.0159
▁mustache	-12.0159
▁బయటపడ్డారు	-12.0159
▁పట్టుబడ్డాడు	-12.016
▁మద్యపానం	-12.016
▁బంధువులు	-12.016
పూర్	-12.016
▁folded	-12.0161
▁North	-12.0161
▁చేయగలిగాను	-12.0161
▁ప్రారంభిస్తాము	-12.0161
▁coal	-12.0161
▁created	-12.0161
▁అడగకూడదు	-12.0162
జిల్	-12.0162
▁అడిగింది	-12.0162
▁తీశారు	-12.0163
▁tools	-12.0163
▁delayed	-12.0163
రోపాలో	-12.0163
▁మాట్లాడేవారు	-12.0163
▁louder	-12.0164
▁ఉపయోగిస్తారు	-12.0164
▁బావి	-12.0164
▁criticize	-12.0164
▁cheaper	-12.0164
▁camping	-12.0164
▁కొలనులో	-12.0165
▁చింతిస్తున్నాడు	-12.0165
▁చేయబడుతుంది	-12.0165
▁నిందించవద్దు	-12.0165
▁కర్మాగారం	-12.0165
▁కష్టమ	-12.0166
▁నిరాకరించాను	-12.0167
▁రాలేరు	-12.0167
▁provided	-12.0168
▁మార్చుకున్నాడు	-12.0168
▁వ్రాయలేదు	-12.0169
▁చెల్లిస్తారు	-12.0169
నిర్ధారించుకోండి	-12.0169
▁వెళ్ళలేము	-12.017
▁సహజంగా	-12.017
▁yelling	-12.0171
▁నిద్రిస్తున్న	-12.0171
▁ఉంచగలరా	-12.0171
▁నింద	-12.0172
▁deer	-12.0172
▁స్వార్థపరుడు	-12.0174
▁camp	-12.0174
▁సైకి	-12.0175
▁suffered	-12.0176
▁చెబుతారా	-12.0177
▁బాధించింది	-12.0178
▁పరిష్కరించగలరా	-12.0178
▁ద్వీపంలో	-12.0181
▁relaxed	-12.0182
▁పెట్టాలి	-12.0183
▁shovel	-12.0185
▁గెలిచాను	-12.0185
▁ధరించాలి	-12.0186
▁replaced	-12.0189
▁కాలేజీలో	-12.0189
▁spiders	-12.0189
▁loaded	-12.0191
▁కస్టమర్	-12.0191
▁లాంటివాడు	-12.0192
నప్పటికీ	-12.0192
▁పేదవాడిని	-12.0193
▁గతంలో	-12.0193
▁recommended	-12.0193
▁చెబుతున్నాను	-12.0194
▁nerves	-12.0196
▁కలవాలి	-12.0196
▁Ten	-12.0198
▁చూసుకుంటారు	-12.0198
▁కనుగొంటాన	-12.0199
▁surprising	-12.0199
▁ఆశిస్తున్నారు	-12.02
▁చర్యలు	-12.0201
శాల	-12.0204
▁మర్చిపోయారు	-12.0204
రాస్తున్నాడు	-12.0207
▁వెతుకుతున్నారు	-12.0208
దరు	-12.0209
▁నిలిపివేయ	-12.021
▁వచ్చాడో	-12.021
▁గర్వపడ్డా	-12.0214
▁medica	-12.0216
▁విభేదిస్తున్నా	-12.0216
▁నిందితుడి	-12.0217
ుందని	-12.0226
▁cops	-12.0233
కదా	-12.0245
▁directions	-12.0246
▁సాధనాల	-12.0246
▁సిగ్గుపడ్డా	-12.0247
▁ఆపాడు	-12.0254
▁Asia	-12.0261
▁టాక్సీలో	-12.0266
▁errors	-12.0271
ంటువులో	-12.0276
▁ఉండలేదు	-12.0277
చేసేటప్పుడు	-12.0278
▁closes	-12.0284
ాలనుకుంటున్నాడ	-12.0285
▁ఎంచుక	-12.0287
▁ఆకట్టుకున్న	-12.0292
▁చేయనివ్వను	-12.0292
టిక్	-12.0292
▁latest	-12.0295
్లు	-12.0304
▁మంచివాడ	-12.0305
▁snowed	-12.0307
▁comments	-12.0309
తున్న	-12.0324
▁కుకీలు	-12.0331
10	-12.0335
గలిగితే	-12.0337
▁లీ	-12.0337
▁కోల్పోతున్నార	-12.0338
ether	-12.0341
▁11	-12.0345
▁ఎంచుకున్నా	-12.0346
▁ఆడాడు	-12.0353
▁తిరస్కరించాడ	-12.036
▁ఒకప్పుడు	-12.0363
▁భవనాల	-12.0376
▁pages	-12.0411
▁తప్పించుకున్న	-12.0413
▁చేయబడలేద	-12.0413
▁భరించ	-12.042
▁aim	-12.0427
పిల్ల	-12.0427
▁din	-12.0447
▁యజమానిని	-12.0454
▁కనుగొ	-12.0458
▁తీసుకోలే	-12.0461
▁గుర్తుంచుకోవ	-12.0483
ెయిన్	-12.0518
ర్ర	-12.052
▁గాయపడిన	-12.0524
▁గందరగోళ	-12.0545
▁కలల	-12.055
▁దోమల	-12.0563
▁స్థిర	-12.0565
▁నిర్ణయించలేద	-12.0568
▁కొన్నామ	-12.0569
land	-12.0571
▁వికారం	-12.0577
▁కొడుతున్నా	-12.0577
▁ఆలోచించలే	-12.0579
▁వదిలివేస్తాన	-12.0587
లేవు	-12.0588
▁మెరుపుల	-12.0596
fully	-12.0602
▁రాబోతున్నాడ	-12.0604
▁slave	-12.0613
▁ఆడగలడ	-12.0626
▁కౌగిలిం	-12.0638
డె	-12.0642
▁చూపించగలర	-12.0648
▁కోల్పోయి	-12.0652
xi	-12.0652
ew	-12.0661
పిస్తుంది	-12.0668
పోయింది	-12.0676
▁ఇష్టపడతా	-12.0677
ంటుంది	-12.0688
డే	-12.0705
▁శాంత	-12.0708
▁colors	-12.071
▁ఉంటా	-12.0723
ినప్పటి	-12.0728
aries	-12.0742
▁exams	-12.0748
▁చింతిస్త	-12.0756
▁పొందాల	-12.0767
▁photograph	-12.0775
▁భరించగల	-12.0781
▁customer	-12.0783
▁ఆర్ప	-12.0786
▁చనిపోయా	-12.0788
▁పిల్లవాడి	-12.0789
ఎ	-12.0799
▁చేసుకు	-12.0799
T	-12.0802
▁పనిచేశా	-12.0805
▁ఈల	-12.0805
▁చెవుల	-12.0809
ిజన్	-12.081
▁చేయలేమ	-12.081
ologist	-12.0814
▁అంట	-12.0817
▁రెస్టారెంట్ల	-12.0819
five	-12.0829
ుకుంటున్నారా	-12.0838
▁బయలుదేరుతున్నామ	-12.0838
▁స్వీకరించ	-12.0839
▁రూపొందించ	-12.0839
▁చేరాల	-12.0841
▁మునిగిపోతున్న	-12.0842
▁కడుక్కో	-12.0843
▁లెక్కించగల	-12.0848
▁వ్యతిరేకం	-12.0849
▁క్యోటో	-12.085
▁ఉడుత	-12.0852
▁మెక్సిక	-12.0852
ctually	-12.0853
▁చర్మ	-12.0856
▁accus	-12.0856
▁addict	-12.0857
▁disturb	-12.0857
▁మాంస	-12.0858
▁insist	-12.0859
▁సాక్స	-12.0862
▁మునిగిపోయా	-12.0864
▁బ్యా	-12.0864
▁అప్పగించ	-12.0865
▁అపరాధ	-12.0867
▁వెళ్ళనివ్వ	-12.0867
▁Mexic	-12.0868
▁బ్రిట	-12.0868
:	-12.0869
▁organ	-12.0869
▁పేర్కొ	-12.0869
espec	-12.0869
▁ధ్వంసమై	-12.0869
▁focus	-12.0869
▁గణనీయ	-12.0869
▁Spring	-12.0869
▁World	-12.0869
▁experiment	-12.0869
▁junk	-12.0869
▁regard	-12.0869
▁ఏకాగ్రత	-12.0869
▁తిమింగల	-12.0869
▁ీకొన్నా	-12.0869
▁Buy	-12.0869
▁Hokkaido	-12.0869
▁access	-12.0869
▁alternative	-12.0869
▁anniversary	-12.0869
▁arrival	-12.0869
▁bloom	-12.0869
▁captured	-12.0869
▁circle	-12.0869
▁connected	-12.0869
▁declared	-12.0869
▁gunshot	-12.0869
▁heavier	-12.0869
▁heavily	-12.0869
▁hurried	-12.0869
▁inevitable	-12.0869
▁influence	-12.0869
▁interfere	-12.0869
▁kilograms	-12.0869
▁kindergarten	-12.0869
▁modest	-12.0869
▁physical	-12.0869
▁plastic	-12.0869
▁rifle	-12.0869
▁saxophone	-12.0869
▁style	-12.0869
▁tradition	-12.0869
▁translation	-12.0869
▁typhoon	-12.0869
▁అరిచింది	-12.0869
▁అసాధ్యమ	-12.0869
▁అస్తమించ	-12.0869
▁ఆకస్మిక	-12.0869
▁ఆటపట్టించ	-12.0869
▁ఆమోదయోగ్యం	-12.0869
▁ఎడారి	-12.0869
▁ఒపెరా	-12.0869
▁కత్తుల	-12.0869
▁కళాశాల	-12.0869
▁క్రీమ్	-12.0869
▁గార్టెన్	-12.0869
▁చదరంగం	-12.0869
▁తక్షణ	-12.0869
▁తూర్పు	-12.0869
▁ద్వేషిస్తాను	-12.0869
▁నేరస్థుడు	-12.0869
▁నైపుణ్యం	-12.0869
▁పరిమితం	-12.0869
▁పిరితిత్తుల	-12.0869
▁ప్రశంసించ	-12.0869
▁ప్రారంభమవుతాయి	-12.0869
▁ప్లాస్టిక్	-12.0869
▁ఫ్యాక్	-12.0869
▁బేరం	-12.0869
▁మాట్లాడుతుంటాడు	-12.0869
▁మునిగిపోయింది	-12.0869
▁మృత	-12.0869
▁విమర్శించ	-12.0869
▁వ్యూహం	-12.0869
▁షిప్	-12.0869
▁సంక్షోభం	-12.0869
▁సాక్ష్యం	-12.0869
▁సాహస	-12.0869
▁హక్కైడో	-12.0869
▁salesman	-12.0869
▁పూరించ	-12.0869
▁వెల్లడించ	-12.0869
▁సిద్ధమవుతున్నా	-12.0869
స్పందన	-12.0869
▁praise	-12.0869
▁reveal	-12.0869
▁ఫేస్	-12.0869
▁విద్యుత్తు	-12.0869
▁వినికిడి	-12.0869
▁Count	-12.0869
▁reservation	-12.0869
▁నడుము	-12.0869
▁వెళ్లాలన	-12.0869
▁నరికివేస	-12.0869
▁సంచుల	-12.0869
▁spinach	-12.0869
▁వాచ్	-12.0869
▁వైద్యుడు	-12.0869
▁wrist	-12.0869
▁digging	-12.0869
▁humiliated	-12.0869
▁visitors	-12.0869
▁హిల్	-12.0869
▁రైళ్ల	-12.0869
▁frog	-12.0869
▁blog	-12.0869
▁unemployed	-12.0869
▁Brit	-12.0869
▁carpet	-12.0869
▁ఆగిపోయాడు	-12.0869
▁పట్టించుకోకపోతే	-12.087
▁సహాయకుడు	-12.087
▁reduce	-12.087
orea	-12.087
▁racket	-12.087
▁crop	-12.087
▁చెవిటివాడు	-12.087
▁మొండివాడు	-12.087
▁అన్నింటికీ	-12.087
▁మానేస్తాన	-12.087
▁waist	-12.087
▁శీ	-12.087
▁పట్టుకుని	-12.087
▁అపార్ట్	-12.087
▁cloudy	-12.087
▁చౌకైన	-12.087
▁teasing	-12.087
▁exten	-12.087
▁pill	-12.0871
▁ఏర్పడ	-12.0871
▁అపరిచితుడు	-12.0871
▁లేడీస్	-12.0871
▁తెలివైనవారు	-12.0871
▁జాడ	-12.0872
▁తింటాయి	-12.0872
▁వ్రాయబడింది	-12.0872
▁dump	-12.0872
▁చూస్తున్నట్లు	-12.0872
▁మూర్	-12.0872
▁witnesses	-12.0872
▁చారి	-12.0872
▁ఆదాయం	-12.0872
▁జీవిస్తాడు	-12.0872
▁గడుపుతాను	-12.0873
▁నిలబడ్డారు	-12.0873
▁సంభవించింది	-12.0873
▁విడిపించ	-12.0873
▁freeze	-12.0873
▁వినిపించ	-12.0873
▁constantly	-12.0873
▁But	-12.0873
▁deleted	-12.0874
▁అడుగుతున్నాను	-12.0874
▁బాధపెడుతుంది	-12.0874
ably	-12.0874
▁notes	-12.0874
▁వదులుకోవద్దు	-12.0874
▁మైక	-12.0874
▁బయలుదేరుతాము	-12.0874
▁sandwiches	-12.0875
▁ఉండగలడు	-12.0875
▁ఎక్స్	-12.0876
▁అల్లడం	-12.0876
▁determined	-12.0876
▁సాక్షులు	-12.0876
▁కలిగించవద్దు	-12.0876
▁భయపెడుతుంద	-12.0877
▁పెట్టుకోలేదు	-12.0877
▁నడవలేను	-12.0878
▁approaching	-12.0878
▁సే	-12.0878
▁అధికారం	-12.0878
▁సిడి	-12.0878
▁fan	-12.088
▁difficulties	-12.088
▁చెందినట్లు	-12.088
▁చంపుతా	-12.0881
▁తింటే	-12.0881
▁బయలుదేరుతాడు	-12.0882
▁మొదట్లో	-12.0883
▁alcoholic	-12.0883
▁మోటార	-12.0883
ేమిట	-12.0884
▁entirely	-12.0884
▁పగలగొట్టాడు	-12.0884
▁వేస్తారు	-12.0884
▁blowing	-12.0884
▁పనిచేసేవాడు	-12.0885
డుస్తోంది	-12.0886
▁రాశారా	-12.0886
▁risky	-12.0887
▁మారుతుంది	-12.0887
▁నిలబడండి	-12.0887
▁సందేహ	-12.0888
▁భయపడవద్దు	-12.0888
▁predicted	-12.0889
▁ఆడకండి	-12.089
▁ప్రాంతాల	-12.0891
▁notified	-12.0891
▁కోరుకోరు	-12.0891
▁కఠినమైనది	-12.0891
▁పంపిన	-12.0895
▁ఆహ్వానించాను	-12.0895
▁పనిచేస్తున్నారు	-12.0895
▁గాయం	-12.0895
▁వినగలరా	-12.0896
శారు	-12.0897
ల్లి	-12.0898
▁చిన్నవి	-12.0898
▁added	-12.0899
▁entering	-12.0904
▁సాధించారు	-12.0907
▁lifted	-12.0907
▁కోల్పోతాము	-12.0909
▁metal	-12.0909
▁behaved	-12.0915
▁shared	-12.0919
▁కోల్పోవడ	-12.0921
▁చైనాలో	-12.0921
▁landed	-12.0922
ripped	-12.0923
▁నీటిలోకి	-12.0924
▁అంగీకరించడం	-12.0925
▁కవితల	-12.0926
rk	-12.0927
▁మార్చడం	-12.0929
▁గ్రాడ్యుయేట్	-12.0931
▁తండ్రిలా	-12.0932
▁వృత్తి	-12.0933
▁నిరాకరిస్తున్నా	-12.0934
▁నిషేధించ	-12.0937
▁chat	-12.094
▁ఆడుత	-12.0943
▁helpless	-12.0945
▁తప్పించుకుంట	-12.0945
▁మిగతావ	-12.0945
▁గుర్తించాడు	-12.0946
▁కర్ర	-12.0948
ాలనుకుంటున్న	-12.0952
▁నచ్చద	-12.0958
▁అబద్ధమ	-12.0959
▁ఆడారు	-12.096
▁మొక్కలు	-12.0963
▁జన్మించింద	-12.0963
▁గ్రీన్	-12.0965
▁seated	-12.0974
▁breaking	-12.0977
ెట్టి	-12.0981
▁డేటా	-12.0983
▁cows	-12.0988
ున్నాయి	-12.0988
▁వేసుకో	-12.0996
▁సహ	-12.0997
▁Dog	-12.1001
▁మనందరి	-12.1007
▁నడిప	-12.1011
▁పేజీల	-12.1011
▁ప్రత్యేకమైన	-12.1013
▁files	-12.1015
▁ఏడవలేద	-12.1023
▁మాట్లాడము	-12.1029
▁fined	-12.1031
▁మూసుకో	-12.1032
▁ఉంచాల	-12.1032
▁ఇద్దరి	-12.1035
▁ideal	-12.105
▁riches	-12.1053
▁react	-12.1055
▁skipp	-12.1059
▁చదివారు	-12.1059
పడుతున్నాను	-12.1062
▁యెన్ల	-12.1064
స్తున్నాము	-12.1066
▁అనుకో	-12.108
▁holidays	-12.1083
▁రానివ్వ	-12.1084
pparently	-12.1084
▁చెల్లించాల	-12.1086
▁జరగకూడద	-12.1094
ush	-12.1098
▁mist	-12.1098
▁Ho	-12.1102
▁బాధపడ్డాడ	-12.1111
తాయ	-12.1121
ox	-12.113
▁మరచిపోలేద	-12.1133
▁నెప	-12.1139
▁హాజరుకా	-12.1139
▁steps	-12.1149
క్షన్	-12.1153
ిస్తున్నాడు	-12.1158
▁అప్పుల	-12.1161
▁మార్చా	-12.1164
▁కనిపించేంత	-12.117
మేనా	-12.1172
▁వస్తాడా	-12.118
మాప	-12.1185
ుకున్నారు	-12.1188
▁memorize	-12.1199
▁వెళ్లకూడదు	-12.1201
డర్	-12.1203
av	-12.1209
▁నడుస్తాన	-12.1215
▁ఉంటున్నార	-12.1229
▁వార్తాపత్రికల	-12.1233
▁వివరించా	-12.1274
▁చంపిన	-12.1281
▁చేయబడిన	-12.1288
▁అనుమానించార	-12.1289
▁ఆస్వాదించ	-12.1291
▁complains	-12.1292
▁పెట్టుకుంద	-12.1293
తుంది	-12.1319
▁సంతోషిస్తా	-12.1325
▁అవుతున్నార	-12.1326
▁ఇచ్చి	-12.1333
ర్లాండ్	-12.1335
▁అనిపించలేద	-12.1339
▁తె	-12.134
▁భయపడుతుంద	-12.134
rolled	-12.1343
▁ప్రయత్నించవచ్చ	-12.1344
▁remembered	-12.1348
▁పరిష్కరించగలన	-12.1349
▁సిగ్గు	-12.1352
▁అమ	-12.1356
ధ్య	-12.1363
▁ఉద్యోగుల	-12.1365
▁understanding	-12.1365
▁Min	-12.1367
▁బయటపడ్డా	-12.1389
▁గర్వపడుతున్నా	-12.1393
aking	-12.1394
▁వస్తువులు	-12.1416
▁బయలుదేరుతున్నాడ	-12.142
▁చూసా	-12.144
▁తేనెటీగల	-12.1452
▁శాశ్వతం	-12.1454
▁అడుగుతున్న	-12.1456
▁ఉద్దేశ	-12.1456
▁ఎముకల	-12.1467
▁ఆక్స	-12.1469
▁స్టా	-12.1471
▁అయ్యార	-12.1474
▁చేర్చ	-12.1478
స్తున్నాడు	-12.1484
ficial	-12.1493
▁పట్టుకున్న	-12.1496
▁గుర్తుంచుకోవాల	-12.1502
రిమ	-12.1507
▁cra	-12.1508
▁incorrect	-12.1509
▁చనిపోతున్నా	-12.1514
▁ఉండగలమ	-12.1516
▁ఆపుతా	-12.1521
▁చూడబోతున్నాన	-12.1534
ిలీ	-12.1534
▁దెయ్య	-12.154
కల్ప	-12.154
▁స్నేహితుడ	-12.1543
▁ఆకట్టుకున్నాడ	-12.1545
▁cop	-12.1546
▁mark	-12.1547
▁rabbit	-12.1548
▁mile	-12.1551
bout	-12.1552
విశ్వవిద్యాలయంలో	-12.1557
▁తీసుకుంటున్నాడ	-12.156
ung	-12.1561
▁grade	-12.1563
▁అమెరికన్ల	-12.1572
▁శీతాకాల	-12.1576
బడ్డారు	-12.1576
▁సభ్యుల	-12.1576
▁కిలోమీటర్ల	-12.1577
▁అవుతార	-12.1578
▁వచ్చాన	-12.1589
▁వెళ్ళినా	-12.1592
ussia	-12.1593
▁రాద	-12.1593
▁loa	-12.1593
▁skill	-12.1594
▁అలసిపోలేద	-12.1595
▁చదువుత	-12.1596
▁tap	-12.1599
▁Mar	-12.1601
▁వివరించలే	-12.1606
▁ప్రాంత	-12.1609
▁సరిపోల	-12.1609
▁మ్యూజియ	-12.1613
▁separate	-12.1615
▁approach	-12.1616
made	-12.1621
▁ఉచిత	-12.1622
▁confuse	-12.1622
▁super	-12.1622
▁inform	-12.1626
ery	-12.1628
▁పిలిచిన	-12.1629
ళ్ళను	-12.1631
▁పిన్	-12.1633
▁comfort	-12.1636
▁విసిరే	-12.1637
lasses	-12.1637
▁ప్రసిద్	-12.1638
▁architect	-12.1638
▁civil	-12.1638
▁అసహన	-12.1638
▁ధ్వని	-12.1638
ావృతమై	-12.1638
▁Catholic	-12.1638
▁Dinner	-12.1638
▁Play	-12.1638
▁aggressive	-12.1638
▁attentive	-12.1638
▁balloon	-12.1638
▁basic	-12.1638
▁client	-12.1638
▁committee	-12.1638
▁confirm	-12.1638
▁connection	-12.1638
▁environment	-12.1638
▁evil	-12.1638
▁expire	-12.1638
▁gossip	-12.1638
▁guide	-12.1638
▁handbag	-12.1638
▁innocence	-12.1638
▁invention	-12.1638
▁mattress	-12.1638
▁miracle	-12.1638
▁nature	-12.1638
▁nucle	-12.1638
▁ordinary	-12.1638
▁plain	-12.1638
▁policy	-12.1638
▁register	-12.1638
▁remote	-12.1638
▁rotten	-12.1638
▁significant	-12.1638
▁spaghetti	-12.1638
▁spilled	-12.1638
▁squeeze	-12.1638
▁strategy	-12.1638
▁tickl	-12.1638
▁transfer	-12.1638
▁trash	-12.1638
▁unmarried	-12.1638
▁valid	-12.1638
▁worries	-12.1638
▁అయిష్ట	-12.1638
▁అరుదైన	-12.1638
▁ఆటోమొబైల్	-12.1638
▁ఆసియా	-12.1638
▁ఎనభై	-12.1638
▁కండీషనర్	-12.1638
▁కమిటీ	-12.1638
▁కాథలిక్	-12.1638
▁గుండెపోటు	-12.1638
▁చదరపు	-12.1638
▁జర్నలిస్ట్	-12.1638
▁జూలై	-12.1638
▁తగ్గింపు	-12.1638
▁నిరసన	-12.1638
▁పగులగొట్ట	-12.1638
▁పర్యటించ	-12.1638
▁పావురం	-12.1638
▁ప్రియుడి	-12.1638
▁ప్రేయసి	-12.1638
▁బడ్జె	-12.1638
▁బెలూన్	-12.1638
▁మనస్సాక్షి	-12.1638
▁ముసుగు	-12.1638
▁మెట్లమీద	-12.1638
▁మైలు	-12.1638
▁రక్తపోటు	-12.1638
▁రష్యా	-12.1638
▁రైఫిల్	-12.1638
▁విరమించుకున్నా	-12.1638
▁వేదిక	-12.1638
▁సామెత	-12.1638
▁స్లీవ్	-12.1638
▁స్వల్ప	-12.1638
▁హాంబర్గర్	-12.1638
▁హాజరవుతా	-12.1638
▁అసహ్యించుకుంట	-12.1638
▁ఇరుక్కుపోయ	-12.1638
▁ఓదార్చ	-12.1638
▁కదలిక	-12.1638
▁కేటాయించ	-12.1638
▁గడువు	-12.1638
▁చికాకు	-12.1638
▁పదార్థాల	-12.1638
▁రూమ్మేట్	-12.1638
▁వ్యాఖ్యాత	-12.1638
▁సత్యాన్	-12.1638
▁సాధ్యమైనంత	-12.1638
▁encourage	-12.1638
▁grandchildren	-12.1638
▁minor	-12.1638
▁recall	-12.1638
▁అత్యాశ	-12.1638
▁అరుపు	-12.1638
▁దారుణం	-12.1638
▁సరిచేయ	-12.1638
▁Work	-12.1638
▁alike	-12.1639
▁automobile	-12.1639
▁క్ష	-12.1639
▁గుంట	-12.1639
▁నాణ్యత	-12.1639
▁దళాల	-12.1639
▁దహన	-12.1639
▁లాకర్	-12.1639
▁వెళ్తున్నాం	-12.1639
▁పులి	-12.1639
▁policemen	-12.1639
▁comb	-12.1639
▁strawberries	-12.1639
▁addition	-12.1639
▁దూకేశా	-12.1639
▁దొంగతనం	-12.1639
▁dozen	-12.1639
▁తెలివితక్కువతనం	-12.1639
▁Pass	-12.1639
▁తెప్పిస్తుంది	-12.1639
▁straw	-12.1639
▁కోసమే	-12.1639
▁అవుతామ	-12.1639
▁ప్రసిద్ధుడు	-12.1639
▁fax	-12.1639
▁పుల్ల	-12.1639
▁intentionally	-12.1639
▁shade	-12.1639
▁wings	-12.1639
▁wig	-12.1639
▁tries	-12.1639
▁పతనం	-12.1639
▁poisonous	-12.1639
▁mosquitoes	-12.1639
▁cries	-12.1639
▁బ్లఫింగ్	-12.1639
▁beef	-12.1639
▁powerful	-12.1639
▁మూర్ఖులు	-12.1639
▁చదువుతుంది	-12.164
▁పద్దెనిమిది	-12.164
▁monkey	-12.164
▁సింక్	-12.164
▁సరిపోయే	-12.164
▁lab	-12.164
▁చూస్తుంది	-12.164
▁రెక్కలు	-12.164
▁Bible	-12.164
▁చిన్నవాళ్ళం	-12.164
▁irritated	-12.164
▁హారము	-12.164
▁prohibited	-12.1641
▁పిలిచినప్పుడు	-12.1641
వుండ	-12.1642
▁ప్రాముఖ్యత	-12.1642
▁మైనర్	-12.1642
▁విగ్	-12.1642
▁protection	-12.1642
గిత	-12.1642
▁former	-12.1643
▁తీసుకోకూడదు	-12.1643
▁July	-12.1643
▁విరుచుకుపడ్డా	-12.1644
▁hunter	-12.1644
▁fellow	-12.1644
▁బర్న	-12.1645
▁వెళ్ళలేడు	-12.1645
▁పదవి	-12.1645
▁కనుగొనగలను	-12.1645
▁చంద్రునిపై	-12.1645
▁ఆదేశించారు	-12.1645
▁ఫ్లోర	-12.1645
▁చదువుకున్నాడు	-12.1646
▁liter	-12.1646
▁గ్రామానికి	-12.1646
▁బిల్లుల	-12.1647
▁Cut	-12.1647
▁స్కోర	-12.1647
▁మూలం	-12.1647
▁conditioner	-12.1648
▁వినగలను	-12.1649
▁dig	-12.1649
▁deceived	-12.165
▁Hal	-12.1651
▁తింటున్నారా	-12.1651
▁గాయపరిచా	-12.1651
▁జన్మించార	-12.1652
▁ఇళ్ల	-12.1652
▁bitter	-12.1652
▁పడవచ్చు	-12.1653
కున్నాము	-12.1655
hrow	-12.1655
▁బాలికలు	-12.1656
▁యువతి	-12.1656
▁నిందితుడు	-12.1656
▁సన్నిహితుడ	-12.1657
▁expression	-12.1658
▁searching	-12.1658
▁పడుతున్నాడు	-12.1659
▁దొరుకుతుంద	-12.1659
▁picky	-12.1661
▁independent	-12.1661
▁వేస్తున్నార	-12.1663
▁జాక్సన్స్	-12.1664
▁అంగీకరించాలి	-12.1665
▁jumping	-12.1667
▁తీసుకువచ్చారు	-12.1667
▁locker	-12.1668
▁కలుసుకున్నారు	-12.1668
▁వేయండి	-12.1669
కొద్ద	-12.1669
▁కొలనులోకి	-12.1669
▁తిరస్కరించడం	-12.1671
▁వాయించగల	-12.1671
▁ప్రేమించడం	-12.1671
▁east	-12.1673
▁కాలిపోతున్న	-12.1673
▁విశ్వసించగలన	-12.1674
▁మారారు	-12.1676
▁employees	-12.1679
▁vitamins	-12.1679
▁hint	-12.168
▁గెలవగలన	-12.1683
▁suggesting	-12.1685
▁ఫలితాలతో	-12.1686
▁helpful	-12.1689
▁అనువదించడానికి	-12.169
▁చిత్రించారు	-12.169
▁గెలవబోతున్నాడ	-12.169
▁తాగవద్దు	-12.1691
▁ఆలోచిస్తున్నాడు	-12.1692
▁ఇంటివాడు	-12.1693
పోయినప్పుడు	-12.1694
▁డిగ్రీలు	-12.1696
▁అనుకుంట	-12.1696
▁pr	-12.1698
▁online	-12.1699
fashioned	-12.1702
వ్య	-12.1702
▁అపరిచితుల	-12.1703
rank	-12.1707
▁bones	-12.1715
iver	-12.1717
▁గొర్రెలు	-12.1717
▁gather	-12.172
▁ఎక్కి	-12.1723
▁పడకగదిలో	-12.1725
▁మైళ్ళు	-12.1725
▁ద్వేషిస్తున్నాడ	-12.1726
కాలంలో	-12.1727
▁differently	-12.1728
▁rabbits	-12.173
▁sounded	-12.1731
▁నిద్రపోలేద	-12.1734
▁వజ్రాల	-12.1735
టప్పుడు	-12.174
▁మెను	-12.1742
▁వస్తున్నాడు	-12.1746
▁tru	-12.1746
▁తొలగించబడ్డాడ	-12.1748
▁జరిగినా	-12.1749
▁una	-12.1751
ుకోలేదు	-12.1761
▁తెలుసుకుంటా	-12.1764
▁చెందుతున్నాడ	-12.1764
▁మంచివి	-12.1767
▁బాధపడలేద	-12.1768
▁వెళ్ళాడా	-12.1769
▁వెళ్లండి	-12.1771
▁చాప	-12.1773
▁విశ్వసిస్తున్నా	-12.1778
▁కుర్చీలో	-12.1779
నిద్రిస్తున్నాడు	-12.178
▁డయ	-12.1791
తొ	-12.1793
▁సోదరుడ	-12.1797
▁పట్టించ	-12.1798
▁rumors	-12.1804
▁strangers	-12.1806
▁వనరుల	-12.1809
గన్	-12.1815
▁aboard	-12.1817
▁శుభ్రపరుస్త	-12.1819
▁సౌర	-12.1823
▁చక్ర	-12.1825
▁తెరుస్త	-12.1826
▁knees	-12.1826
▁ప్రేమిస్తాన	-12.1828
▁శిక్షించబడ్డా	-12.1828
▁వ్యవహరిస్త	-12.183
▁నడవడ	-12.1852
▁sour	-12.1852
చింది	-12.1854
▁Add	-12.1857
▁goals	-12.1863
్డాయి	-12.1873
▁ఉపయోగపడుతుంద	-12.1876
▁జరగాల	-12.1887
▁గుర్తుంచుకుంటా	-12.1893
కున్నాడు	-12.1894
▁జీవిస్తార	-12.1894
▁ప్రారంభించాల	-12.1906
▁నిద్రపోతున్న	-12.1912
▁demands	-12.193
▁pop	-12.1932
▁owned	-12.1933
ama	-12.1939
▁సరళమైన	-12.194
▁వెల్ల	-12.1941
▁అడుగుతాడ	-12.1954
▁విలువైనదే	-12.1954
▁బాగాలేదు	-12.1959
▁నిద్రిస్త	-12.196
గర్	-12.1962
▁విరిచా	-12.1963
▁causes	-12.1969
పడ్డాడు	-12.1975
▁పిల్లలందర	-12.1976
20	-12.1986
▁తిని	-12.1994
▁ఉపయోగిస్త	-12.1996
▁ఒప్పించా	-12.2003
▁భయ	-12.2008
▁అద్భుత	-12.2022
▁దోచుకున్నా	-12.2024
▁acts	-12.2029
▁వదులుకున్నా	-12.2033
ిజ	-12.204
▁ప్రారంభించవచ్చ	-12.2043
▁చేసుకుంటున్నా	-12.2047
▁వేశా	-12.205
que	-12.2063
రావాల్సిన	-12.2063
▁Sw	-12.2071
▁కంట	-12.2072
▁మెల	-12.2085
▁భయపడలేద	-12.2099
▁నిర్ణయించలే	-12.2101
▁తీసుకురావాల	-12.2105
arrot	-12.2112
▁అల	-12.2113
▁జార	-12.2115
inter	-12.2118
▁ఆటల	-12.2125
▁విటమిన్ల	-12.2128
▁vo	-12.2133
న్నాడు	-12.2144
ుకుంటాము	-12.2154
▁చిక్కుకో	-12.2187
▁అనిపిస్త	-12.2189
▁ట్ర	-12.2211
▁ముఖంలో	-12.2214
ace	-12.2234
▁పర	-12.2237
ంబో	-12.225
▁ఉత్తరా	-12.2265
▁పంపించా	-12.2266
▁విజయవంతమయ్య	-12.2269
▁Car	-12.227
▁నవ్వి	-12.227
▁సౌ	-12.228
▁ఆడుతున్న	-12.2287
▁మాట్లాడాలనుకు	-12.2314
ుకుంటున్నారో	-12.2314
ike	-12.2319
ఫిన్	-12.2327
▁సమయాల	-12.2329
▁చంపేస్త	-12.2336
▁చిక్కుకు	-12.2343
▁రాజ	-12.2347
obe	-12.2348
▁ప్రదేశ	-12.2354
ుకొని	-12.2358
▁సాధన	-12.2358
ruc	-12.2366
▁పీల్చుకో	-12.237
val	-12.2376
▁guest	-12.2385
▁పట్టుబడ	-12.2386
▁గెలవనివ్వ	-12.2387
దైన	-12.2394
స్థిరమైన	-12.2397
▁నమ్మదగని	-12.2399
wife	-12.24
దేశ	-12.2401
eading	-12.2402
పొ	-12.2408
▁డిగ్రీల	-12.241
▁పాడమ	-12.241
▁మర్చిపోయార	-12.2411
▁పేల	-12.2411
▁wav	-12.2413
▁చంపార	-12.242
▁వెళ్లాలనుకున్నా	-12.2423
▁సంపాదించాడ	-12.2432
▁జీవించాల	-12.2434
▁shove	-12.2435
కుందాం	-12.2446
▁యోచిస్తున్నార	-12.2449
▁మిగిలిపోయి	-12.2452
▁arrange	-12.2455
▁provide	-12.2455
▁అలవాటుపడ	-12.2457
▁ఉద్దేశ్య	-12.2459
▁abandon	-12.246
▁అబద్ద	-12.2461
▁ముగుస్తుంద	-12.2462
▁సాధ్యమ	-12.2462
▁జాగ	-12.2464
▁బంధువు	-12.2466
▁ఆరోపణ	-12.2466
ద్వ	-12.2466
▁compose	-12.2466
▁నిరాశపడ	-12.2468
▁ఇంద	-12.2468
▁remark	-12.2469
▁తేలికైన	-12.247
▁fri	-12.247
▁consist	-12.2471
▁sail	-12.2471
▁ఉప	-12.2471
▁హ్యా	-12.2471
ీకరణ	-12.2472
▁జవాబు	-12.2472
▁తగిలి	-12.2472
▁నిగ్రహాన	-12.2472
▁Clean	-12.2472
▁Cross	-12.2472
▁Drink	-12.2472
▁bachelor	-12.2472
▁seventeen	-12.2472
▁అనాగరిక	-12.2472
▁అవగాహన	-12.2472
▁ఆగ్రహ	-12.2472
▁ఆలివ్	-12.2472
▁కుందేలు	-12.2472
▁చీలమండ	-12.2472
▁మణికట్టు	-12.2472
▁రవాణా	-12.2472
▁విజేత	-12.2472
▁సంతోషాన్ని	-12.2472
▁సంప్రదిస్తా	-12.2472
djust	-12.2472
ణ్ణ	-12.2472
▁Anything	-12.2472
▁First	-12.2472
▁Greece	-12.2472
▁Hilton	-12.2472
▁Luckily	-12.2472
▁Milk	-12.2472
▁Olympic	-12.2472
▁Summer	-12.2472
▁Tuesday	-12.2472
▁Year	-12.2472
▁absurd	-12.2472
▁accurate	-12.2472
▁ancient	-12.2472
▁arrogan	-12.2472
▁atmosphere	-12.2472
▁blocked	-12.2472
▁brilliant	-12.2472
▁bruise	-12.2472
▁celebrating	-12.2472
▁consciousness	-12.2472
▁cotton	-12.2472
▁destiny	-12.2472
▁exaggerate	-12.2472
▁exaggerating	-12.2472
▁expelled	-12.2472
▁families	-12.2472
▁firewood	-12.2472
▁grapes	-12.2472
▁greedy	-12.2472
▁hamburger	-12.2472
▁haunted	-12.2472
▁instinct	-12.2472
▁knives	-12.2472
▁laundry	-12.2472
▁otherwise	-12.2472
▁oxygen	-12.2472
▁paranoid	-12.2472
▁pierced	-12.2472
▁porch	-12.2472
▁precious	-12.2472
▁produce	-12.2472
▁promotion	-12.2472
▁recipe	-12.2472
▁reputation	-12.2472
▁sacrifice	-12.2472
▁signature	-12.2472
▁slippery	-12.2472
▁surgeon	-12.2472
▁target	-12.2472
▁trumpet	-12.2472
▁turkey	-12.2472
▁అంగారక	-12.2472
▁అవయవ	-12.2472
▁అసలైన	-12.2472
▁ఆలోచిస్తూ	-12.2472
▁కొంటాడు	-12.2472
▁క్లుప్త	-12.2472
▁గైడ్	-12.2472
▁చట్టవిరుద్ధమ	-12.2472
▁చెప్పదలచుకోలేదు	-12.2472
▁డిక్షనరీ	-12.2472
▁డోనట్	-12.2472
▁దేశద్రోహి	-12.2472
▁పరధ్యానం	-12.2472
▁పరుగు	-12.2472
▁పర్యావరణ	-12.2472
▁పీడకల	-12.2472
▁పూజారి	-12.2472
▁ప్రతికూల	-12.2472
▁ప్రూఫ్	-12.2472
▁ప్రొఫెసర్	-12.2472
▁ఫేమస్	-12.2472
▁మట్టి	-12.2472
▁మతిస్థిమితం	-12.2472
▁మహాసముద్ర	-12.2472
▁మినహా	-12.2472
▁ముత్తాత	-12.2472
▁యూరోపియన్	-12.2472
▁రెండేళ్ళు	-12.2472
▁రైటర్	-12.2472
▁లక్షాధికారి	-12.2472
▁లాండ్రీ	-12.2472
▁వీటన్నిటి	-12.2472
▁వెతుక్క	-12.2472
▁వైఖరి	-12.2472
▁వ్రాస్తార	-12.2472
▁సర్జన్	-12.2472
▁సర్దుబాట	-12.2472
▁సవాలు	-12.2472
▁సాంకేతిక	-12.2472
▁స్వతంత్ర	-12.2472
▁హోరిజోన్	-12.2472
▁ankle	-12.2472
▁priest	-12.2472
▁retreat	-12.2472
▁ఒలింపిక్	-12.2472
▁జరిప	-12.2472
▁జాతి	-12.2472
▁దౌత్యవేత్త	-12.2472
▁పలిక	-12.2472
▁మనవరాళ్ళ	-12.2472
▁సింగిల్	-12.2472
▁charming	-12.2472
▁కోరుకునే	-12.2472
▁పగటిపూట	-12.2472
▁వచన	-12.2472
▁nightmare	-12.2472
▁సుఖ	-12.2472
▁సున్నా	-12.2472
▁application	-12.2472
▁resume	-12.2472
▁slam	-12.2472
రబ్బ	-12.2472
▁పర్స్	-12.2472
▁హాలులో	-12.2472
▁flash	-12.2472
▁క్షమించాడ	-12.2472
▁అసహనంతో	-12.2472
▁స్టీ	-12.2472
▁బాతు	-12.2472
▁clue	-12.2472
▁వచ్చాయ	-12.2472
▁link	-12.2472
▁budge	-12.2472
▁ఆకారంలో	-12.2472
▁decorat	-12.2472
▁mailbox	-12.2472
▁బ్యాండ్	-12.2472
▁Walk	-12.2472
▁వేళ్ళ	-12.2472
▁వ్యక్తీకరణ	-12.2472
▁Talk	-12.2472
▁కట్టెల	-12.2472
▁shift	-12.2472
▁అడగదలిచిన	-12.2472
▁లక్షణాల	-12.2472
▁limp	-12.2472
▁pitch	-12.2472
▁supplies	-12.2472
▁చనిపోనివ్వ	-12.2472
timate	-12.2472
యాడ్	-12.2472
లియన్	-12.2472
▁నిద్రపోతారు	-12.2472
▁జరుగుతున్నాయి	-12.2473
▁షేక్	-12.2473
▁port	-12.2473
▁మూగ	-12.2473
▁critical	-12.2473
▁ప్రజా	-12.2473
▁అబద్దాలు	-12.2473
▁చూస్తున్నప్పుడు	-12.2473
▁coma	-12.2473
▁Generally	-12.2473
▁తీసివేయండి	-12.2473
▁పాస్వర్డ్	-12.2473
icted	-12.2474
▁chairman	-12.2474
▁డజన	-12.2474
▁stain	-12.2474
▁భయపడతారు	-12.2474
▁పేస్ట	-12.2474
▁బాధపడటం	-12.2474
▁European	-12.2474
▁న్యూజ	-12.2474
▁వెర్రివాడు	-12.2475
▁చూపిస్తుంది	-12.2475
ెయిల్	-12.2475
క్యూ	-12.2475
▁businessman	-12.2475
▁అనుమతించబడదు	-12.2475
▁కోల్పోయినట్లు	-12.2475
▁knitting	-12.2475
▁మృదువైనది	-12.2475
▁హోమ్	-12.2475
▁టమోటాలు	-12.2476
▁ప్రోత్సహించ	-12.2476
▁తీసుకోబోతున్నా	-12.2476
▁కోమా	-12.2477
▁కదులుత	-12.2477
▁పాడుతూ	-12.2477
▁నడవలేడు	-12.2477
క్టర్	-12.2477
కువగా	-12.2477
▁తింటాము	-12.2477
▁లభిస్తుంది	-12.2478
▁laughter	-12.2478
▁అందుకున్నాను	-12.2478
▁ఎంచుకున్నారు	-12.2478
▁వెళ్తుంది	-12.2478
▁ప్రయత్నించకూడదు	-12.2479
▁సహేతుకమైనది	-12.2479
దుతాడు	-12.2479
▁పాతవాడిని	-12.2479
▁స్క్రూ	-12.248
▁పోయారు	-12.248
▁తీసుకుంటే	-12.2481
▁whispered	-12.2481
▁blushed	-12.2481
▁అనువాదం	-12.2481
▁directly	-12.2482
▁అడుగుతున్నాడు	-12.2482
▁భారతదేశంలో	-12.2483
▁అంగీకరించలేను	-12.2483
▁తినేవాడు	-12.2483
▁దెయ్యం	-12.2483
నెల్	-12.2484
▁శుభ్రపరచడం	-12.2484
▁కూర్చున్నాము	-12.2484
▁స్కి	-12.2485
యాక్సి	-12.2486
▁వింటున్నాడు	-12.2486
▁ఉండలేము	-12.2486
▁తాకలేదు	-12.2486
▁sinking	-12.2486
▁బాకా	-12.2487
▁పెంచుతా	-12.2487
▁సూచించారు	-12.2487
్రేక్	-12.2487
▁చెబుతార	-12.2487
▁రాజీ	-12.2488
▁తరలించారు	-12.2488
▁ఉపన్యాసం	-12.2489
▁అంచనాల	-12.2489
▁separated	-12.249
▁eighty	-12.2491
▁anytime	-12.2491
▁కోయ	-12.2492
▁ఉడుతల	-12.2492
▁windy	-12.2492
▁నిద్రపోండి	-12.2492
▁చదువుతున్న	-12.2492
▁నేర్పిస్తాన	-12.2493
▁earned	-12.2493
▁క్యోటోలో	-12.2494
▁ఉగ్రవాదుల	-12.2494
▁ప్రభావం	-12.2495
▁ఇష్టపడదు	-12.2496
▁న్యాయవాదులు	-12.2496
▁ప్రతిభావంతుడు	-12.2496
▁పట్టుకోవడం	-12.2498
▁కౌగిలించుకోవాల	-12.2498
▁ఉండవు	-12.2499
▁కుర్చీల	-12.2501
▁తెలుసుకున్నాడు	-12.2501
▁మార్చాలి	-12.2502
▁lid	-12.2503
▁మాట్లాడవలసి	-12.2504
▁పంట	-12.2504
వ్వ	-12.2504
▁క్రొత్తది	-12.2505
లిన్	-12.2505
▁తిరుగుత	-12.2505
▁collected	-12.2505
ium	-12.2506
గురు	-12.2507
▁తీసుకోరు	-12.2507
▁musical	-12.2509
▁గెలిచారు	-12.2509
▁అయిపోయాను	-12.251
▁విడిచిపెట్టింది	-12.251
▁చూపులో	-12.251
▁చివరలో	-12.2511
▁క్షమించాను	-12.2512
▁defense	-12.2512
▁lick	-12.2512
iv	-12.2516
▁required	-12.2516
▁శక్తివంతమైన	-12.2523
▁అనుసరిస్తున్నార	-12.2524
▁నాటారు	-12.2524
▁పెట్టుకున్నారు	-12.2524
▁నమ్మలేరు	-12.2527
▁కాల్చడం	-12.2528
▁చేసుకుంటాడు	-12.2529
veral	-12.2529
▁గెలవడు	-12.253
▁దాచారు	-12.2531
▁బెల్	-12.2531
▁completed	-12.2534
▁observe	-12.2535
▁biologi	-12.2537
▁విభాగం	-12.2539
▁కిలోమీటర్లు	-12.254
▁పాడారు	-12.2544
▁loser	-12.2545
▁బాక్స	-12.2546
ాతీలో	-12.2546
ుకోవచ్చు	-12.2549
▁ఉండగలను	-12.2549
▁సాధ్యమేనా	-12.2552
▁నడిపించాడ	-12.2558
unny	-12.256
▁ప్రత్యామ్నాయం	-12.256
▁కొట్టింది	-12.2561
▁నడిపిస్త	-12.2562
▁అనుమతించబడ	-12.2571
▁corrected	-12.2574
▁ఆకట్టుకుంట	-12.2574
▁పోస	-12.2575
▁ఉపాధ్యాయుడిని	-12.2578
ుంటూ	-12.2578
▁పురా	-12.2582
▁గర్వించ	-12.2584
▁చెరువులో	-12.2585
▁stat	-12.2591
▁ధరించాల	-12.2594
▁మరచిపోవ	-12.2599
▁వెళ్ళాలా	-12.2601
పియర్	-12.2602
▁కన్నీళ్లు	-12.2605
▁తీరు	-12.2607
orget	-12.2607
▁culture	-12.2611
▁understandable	-12.2615
▁చూస్తార	-12.2617
▁పనిచేస్తున్న	-12.2626
▁చెప్పలే	-12.2628
▁షాపుల	-12.2628
▁షీట్	-12.2634
▁బందీల	-12.2636
▁దేనితో	-12.264
▁బాధపడుతున్న	-12.2648
▁రాడ	-12.2653
▁career	-12.266
▁ఎముక	-12.2661
▁పోస్తున్నా	-12.2667
▁వాక్యాల	-12.267
పడటం	-12.268
▁పంపా	-12.268
▁కలిగిన	-12.2682
▁లక్ష్యాల	-12.2691
▁శత్రువుల	-12.2692
లాంటి	-12.2693
▁చెక్	-12.2694
▁suggestions	-12.2702
▁విడి	-12.272
▁చేసుకోబోతున్నాడ	-12.2721
▁తిరస్కరించలే	-12.2722
నర్	-12.2723
▁వ్యతిరేకించ	-12.2723
▁కోల్పోను	-12.2723
▁అవ్వాల	-12.2724
కాలిక	-12.2754
▁మాట్లాడుతా	-12.276
▁నేర్చుకోవాల	-12.2779
▁అవుతున్నాడ	-12.2791
▁చెందాడ	-12.2805
కున్నప్పుడు	-12.282
▁భావించార	-12.2824
▁బగ్	-12.2824
▁నిపుణుల	-12.283
పడిన	-12.2838
▁డైవ	-12.2838
▁వెళ్తార	-12.2849
▁చదువుకున్నా	-12.2855
▁ఆశపడ్డా	-12.2868
▁మరణించిన	-12.2888
▁దేవు	-12.2893
▁బయటపడట	-12.2895
రాళ్ళు	-12.2907
▁రాత్రుల	-12.291
▁కొడుతున్నాడ	-12.2914
hoose	-12.2939
▁చెందలేద	-12.294
▁అంగీకరించే	-12.2948
▁వదులుకున్నార	-12.2957
▁మరెవరిన	-12.2959
▁వెతుకుతున్నాడ	-12.2963
▁ముగించార	-12.2964
▁విరిగిపోయింద	-12.2965
▁మరచిపోయార	-12.2976
పోతాయి	-12.298
▁స్నేహ	-12.2989
▁చట్టాల	-12.299
▁పాల్గొ	-12.2997
▁తీసుకోమ	-12.3004
▁చెబుత	-12.3014
▁ఏడుస్తున్నార	-12.3017
▁నిందించలే	-12.3019
▁చేయబడ్డార	-12.3019
▁ముగించాడ	-12.3051
▁దాటింద	-12.3058
▁అనుమాన	-12.3062
▁చేస	-12.3064
▁దిగజార	-12.3078
▁గ్రీస	-12.3085
▁బాగుపడ	-12.3097
▁తినవచ్చ	-12.3101
▁గర్వపడుతున్నాడ	-12.3102
▁ద్వేషిస్తున్న	-12.3109
▁ప్రయాణిస్త	-12.3124
▁మొక్క	-12.3132
▁వాదనల	-12.3133
▁దొంగిలించాన	-12.3141
gran	-12.3149
▁తీసుకుంట	-12.3162
స్తున్నారు	-12.3165
▁జీవితాల	-12.3169
▁పరిష్కరించలే	-12.3169
raw	-12.3174
▁చుట్టుముట్ట	-12.3174
▁తెచ్చార	-12.3176
▁మూల	-12.3179
▁సరిదిద్ద	-12.3182
▁ప్రసంగ	-12.3185
▁మింగ	-12.3188
▁ఆపాల	-12.3192
▁వేటాడ	-12.3193
▁ఖండ	-12.3194
ెల్లింగ్	-12.3199
▁పట్టించుకో	-12.3201
▁సంపాదించా	-12.3213
▁మంచివా	-12.3219
▁హింస	-12.3231
▁చంపలేద	-12.3233
ైట్	-12.3241
▁ఉంచాడ	-12.3258
ales	-12.3262
▁చమత్కరించ	-12.3273
రాల	-12.3274
▁సంబంధ	-12.3277
▁clo	-12.3278
▁సామర్థ్య	-12.3281
▁bone	-12.3291
▁సన్న	-12.3297
▁సూచిస్తున్నార	-12.3301
▁దురదృష్టవంతుడ	-12.3302
▁లభించిన	-12.3302
▁foreigner	-12.3306
▁తెలిసినవ	-12.3307
nails	-12.3312
▁క్రూర	-12.3312
ఆ	-12.3312
known	-12.3312
▁toast	-12.3313
▁సున్నిత	-12.3313
ఒక్కరిక	-12.3313
సైకిల్	-12.3314
O	-12.3314
hine	-12.3314
box	-12.3315
▁చేసుకుంటాడ	-12.3319
▁ఉండబోతున్నార	-12.332
▁ఉండగలన	-12.332
▁కోల్పోయార	-12.3322
▁చెప్పగలన	-12.3322
▁సరైనవార	-12.3323
▁రేప	-12.3323
▁సాధిస్తా	-12.3326
▁తినకూడద	-12.333
▁కస్టమర్ల	-12.3331
▁froze	-12.3336
▁ఆశావాద	-12.3345
▁డ్రమ్	-12.3346
▁లోతు	-12.335
▁blam	-12.3353
▁ఇంగ్లీషు	-12.3356
▁మాట్లాడగలర	-12.3359
▁సరిపోతాయ	-12.336
▁ఆలోచి	-12.336
▁స్నాన	-12.3362
▁తుమ్ము	-12.3362
▁దారి	-12.3362
ించడానికి	-12.3362
పన	-12.3363
▁పట్టించుకోలేద	-12.3364
▁అధ్యయన	-12.3364
▁సహన	-12.3366
హిత	-12.3367
▁disappear	-12.3369
▁betray	-12.3369
▁గెలవవచ్చ	-12.337
▁నచ్చుతుంద	-12.337
లింగ	-12.3371
▁అనువాద	-12.3371
▁bowl	-12.3371
lcome	-12.3371
▁sharpen	-12.3372
▁graduate	-12.3374
▁రాణి	-12.3375
దగిన	-12.3376
▁సరసాలాడ	-12.3376
▁డబ్బులన్న	-12.3376
▁offend	-12.3377
wimming	-12.3379
▁ట్యా	-12.338
▁pear	-12.338
conscious	-12.338
▁శతాబ్ద	-12.3381
ortunately	-12.3381
▁సంప్రదాయ	-12.3381
▁Christian	-12.3381
▁bankrupt	-12.3381
▁brake	-12.3381
▁diagnos	-12.3381
▁differ	-12.3381
▁export	-12.3381
▁grandson	-12.3381
▁ఏర్పరచుకున్నా	-12.3381
▁తీసుకువస్తా	-12.3381
▁పనిమనిషి	-12.3381
▁ప్రార్థిస్త	-12.3381
▁మనుషుల	-12.3381
▁మెదడు	-12.3381
▁వస్త్ర	-12.3381
▁విశ్లేష	-12.3381
▁వ్యర్థ	-12.3381
▁షాంపూ	-12.3381
▁సందర్శన	-12.3381
జాలం	-12.3381
▁California	-12.3381
▁Compare	-12.3381
▁Hotel	-12.3381
▁Pick	-12.3381
▁Shakespeare	-12.3381
▁Thai	-12.3381
▁Yes	-12.3381
▁arriving	-12.3381
▁baggage	-12.3381
▁bartender	-12.3381
▁batteries	-12.3381
▁biology	-12.3381
▁brand	-12.3381
▁bump	-12.3381
▁cautious	-12.3381
▁communicate	-12.3381
▁competition	-12.3381
▁compromise	-12.3381
▁cooperate	-12.3381
▁creative	-12.3381
▁essential	-12.3381
▁female	-12.3381
▁flies	-12.3381
▁flour	-12.3381
▁heaven	-12.3381
▁hobbies	-12.3381
▁horror	-12.3381
▁individual	-12.3381
▁inexpensive	-12.3381
▁intersection	-12.3381
▁investigating	-12.3381
▁irrelevant	-12.3381
▁jogging	-12.3381
▁journey	-12.3381
▁kilos	-12.3381
▁kitten	-12.3381
▁laptop	-12.3381
▁lemon	-12.3381
▁literature	-12.3381
▁microscope	-12.3381
▁nowadays	-12.3381
▁overcoat	-12.3381
▁pigeon	-12.3381
▁pistol	-12.3381
▁practicing	-12.3381
▁professor	-12.3381
▁reluctantly	-12.3381
▁resemble	-12.3381
▁shark	-12.3381
▁shaving	-12.3381
▁spicy	-12.3381
▁steady	-12.3381
▁surface	-12.3381
▁sushi	-12.3381
▁suspicion	-12.3381
▁thunder	-12.3381
▁toothpaste	-12.3381
▁trousers	-12.3381
▁twentieth	-12.3381
▁uncomfortable	-12.3381
▁wolf	-12.3381
▁అతిథి	-12.3381
▁అధికారికంగా	-12.3381
▁అనుభవశూన్యుడు	-12.3381
▁అరవై	-12.3381
▁అర్థమైందని	-12.3381
▁అలంకరించ	-12.3381
▁ఆరబెట్ట	-12.3381
▁ఆశ్చర్యపర్చ	-12.3381
▁ఇరవయ్యవ	-12.3381
▁ఉండటమే	-12.3381
▁ఏజెంట్	-12.3381
▁ఏడ్చా	-12.3381
▁కపట	-12.3381
▁కారణమేమిటి	-12.3381
▁కాలిఫోర్నియా	-12.3381
▁ఖగోళ	-12.3381
▁గిన్నె	-12.3381
▁గుడ్లగూబ	-12.3381
▁జిప్	-12.3381
▁డిజైనర్	-12.3381
▁డిన్నర్	-12.3381
▁తాబేళ్ల	-12.3381
▁తువ్వాళ్ల	-12.3381
▁తెరుచుకుంటుంది	-12.3381
▁తొంభై	-12.3381
▁తోడేలు	-12.3381
▁త్సాహిక	-12.3381
▁దుష్ట	-12.3381
▁నమల	-12.3381
▁నాయకుడి	-12.3381
▁నిమగ్నమ	-12.3381
▁నైపుణ్యాల	-12.3381
▁పదోన్నతి	-12.3381
▁పిడికిలి	-12.3381
▁పిలుస్తాము	-12.3381
▁పిస్టల్	-12.3381
▁పౌరుడు	-12.3381
▁ప్రశంసల	-12.3381
▁బార్టెండర్	-12.3381
▁బేబీ	-12.3381
▁బైబిల్	-12.3381
▁బొద్దింకల	-12.3381
▁మంగళవారం	-12.3381
▁మరక	-12.3381
▁ముసిముసి	-12.3381
▁యుక్తవయస	-12.3381
▁రాష్ట్ర	-12.3381
▁రోబోట్	-12.3381
▁లింప్	-12.3381
▁వర్ణించ	-12.3381
▁విడదీయ	-12.3381
▁విపరీత	-12.3381
▁విస్కీ	-12.3381
▁వేతనాల	-12.3381
▁వ్యక్తపరచ	-12.3381
▁శాఖాహారి	-12.3381
▁షిఫ్ట	-12.3381
▁సెలవుదినం	-12.3381
temporary	-12.3381
▁bookstore	-12.3381
▁enthusias	-12.3381
▁examined	-12.3381
▁ఒక్కటే	-12.3381
▁తేమ	-12.3381
▁రగ్గు	-12.3381
▁సంకోచించ	-12.3381
▁float	-12.3381
▁ఆటగాళ్ళు	-12.3381
▁వావ్	-12.3381
▁conscience	-12.3381
▁solar	-12.3381
▁utter	-12.3381
▁winked	-12.3381
▁ప్రయత్నించినా	-12.3381
▁మనవడు	-12.3381
▁attitude	-12.3381
▁robot	-12.3381
▁campfire	-12.3381
▁రైల్	-12.3381
▁wolves	-12.3381
▁రాయబార	-12.3381
▁prime	-12.3381
▁నిపుణుడిని	-12.3381
▁expectations	-12.3381
▁performance	-12.3381
▁Los	-12.3381
▁horn	-12.3381
▁గురిచేసింది	-12.3381
ealand	-12.3381
cycl	-12.3381
▁click	-12.3381
▁జేబుల్లో	-12.3381
▁medication	-12.3381
▁edge	-12.3381
▁ట్రిక్	-12.3381
▁permitted	-12.3381
▁దివా	-12.3381
▁sober	-12.3381
▁అక్కర్లేదు	-12.3381
▁రేటు	-12.3381
▁tower	-12.3381
▁హిట్	-12.3381
▁పిక్కీ	-12.3381
▁tank	-12.3381
▁కూలిపోయింద	-12.3382
▁తోముకుంటా	-12.3382
▁happier	-12.3382
▁వారాంతం	-12.3382
▁ఫస్ట్	-12.3382
▁statue	-12.3382
▁అణువు	-12.3382
▁ట్యాంక	-12.3382
▁మేజర్	-12.3382
▁wage	-12.3382
▁బౌల	-12.3382
▁కాంగ్	-12.3382
▁వంటకం	-12.3382
▁ఎగురుతుంది	-12.3382
▁sword	-12.3382
▁winner	-12.3383
▁సింగ	-12.3383
▁screw	-12.3383
▁ఓపెన్	-12.3383
▁తీగ	-12.3383
▁పెరుగుతుంది	-12.3383
▁ripe	-12.3383
▁మీసం	-12.3383
▁medal	-12.3383
▁చేసినదానిక	-12.3383
▁ధ్వనించే	-12.3383
దుగురు	-12.3384
▁properly	-12.3384
▁బాగున్నాయి	-12.3384
▁రాగానే	-12.3384
▁ఎలుగుబంట్లు	-12.3384
▁గెలిచాము	-12.3384
▁పెరిగారు	-12.3385
▁వాళ్ళ	-12.3385
▁exit	-12.3385
▁వింతైన	-12.3385
▁slip	-12.3385
▁రాకపోతే	-12.3385
▁సంప్రదాయవాది	-12.3385
ities	-12.3385
▁అమ్మేశాడు	-12.3385
▁నిద్రపోలేను	-12.3385
▁వెళ్ళకపోతే	-12.3386
▁కారణమవుత	-12.3386
▁dial	-12.3386
▁string	-12.3386
▁నిద్రపోతున్నాను	-12.3386
▁motiv	-12.3387
▁social	-12.3387
▁తీసుకుంటుంది	-12.3387
▁చెడ్డవాడిని	-12.3387
▁wheat	-12.3387
▁కానుక	-12.3387
▁మాట్లాడతాము	-12.3387
▁పెంచుకున్నాడు	-12.3387
▁designer	-12.3388
▁ఉండేవాడిని	-12.3388
▁చేసుకోవచ్చు	-12.3388
▁గాయపడ	-12.3388
▁వెంబడించ	-12.3388
▁ఆలోచిస్తున్నాన	-12.3389
▁fist	-12.3389
▁చెప్పాల్సి	-12.3389
▁Wow	-12.3389
▁సింహం	-12.3389
ficially	-12.339
▁చిత్రకారుడు	-12.339
▁విస్తృతం	-12.3391
▁సిటీ	-12.3391
▁agent	-12.3391
▁చెప్పబోతున్నారు	-12.3391
▁పడిపోయాను	-12.3391
▁ఉపరితలం	-12.3391
▁defeated	-12.3392
యోగాల	-12.3393
▁వేస్తాడు	-12.3394
యూట	-12.3395
▁terrorist	-12.3396
▁శాఖాహారులు	-12.3396
▁చూసుకున్నారు	-12.3396
▁సరైనవి	-12.3396
▁బయలుదేరినప్పుడు	-12.3397
▁కోడి	-12.3398
▁dresses	-12.3399
▁మూసివేసాను	-12.3399
▁దొంగిలించడం	-12.34
▁వ్యాపించ	-12.34
▁చెప్పబోతున్నాడు	-12.3402
▁అనుసరించండి	-12.3403
▁తట్టాడు	-12.3403
▁sue	-12.3403
▁నియమించారు	-12.3403
▁వాయించింది	-12.3404
▁అధిగమించాడు	-12.3404
▁autumn	-12.3404
▁వైఫల్యం	-12.3404
▁రోగుల	-12.3405
▁కడుక్కోవ	-12.3407
▁స్వర్గం	-12.3407
▁resigned	-12.3407
▁చిహ్నం	-12.3407
▁తగ్గాలి	-12.3407
▁బానిసల	-12.3407
▁విడిపోయారు	-12.3408
▁విన్నది	-12.3408
▁సంకల్పం	-12.3408
ొనే	-12.3408
▁increased	-12.3409
▁ప్రజలందర	-12.341
▁volunteered	-12.3411
▁జోడించడానికి	-12.3411
▁hostages	-12.3412
▁అనడం	-12.3412
▁design	-12.3413
▁organized	-12.3413
▁requested	-12.3414
▁తెరవలేదు	-12.3414
▁భూకంపాల	-12.3415
▁తెలుసుకున్నారు	-12.3416
▁తాళ	-12.3416
▁limited	-12.3417
▁ప్రయోజనాల	-12.3417
చ్చాడు	-12.3418
▁పిలుస్తున్నారు	-12.3418
▁belonged	-12.3418
▁wrapped	-12.3418
▁సహాయపడుతుంద	-12.3421
▁para	-12.3422
▁పరిస్థితుల్లో	-12.3422
▁పాక్షిక	-12.3425
▁గాయకుడిని	-12.3425
▁miner	-12.3425
▁కొట్టలేడు	-12.3425
ాయాచిత్రాల	-12.3426
▁severe	-12.3427
▁కెనడాలో	-12.3429
▁నాట్య	-12.3429
▁Air	-12.343
▁ఒప్పించారు	-12.3433
▁నమ్మండి	-12.3434
▁నవ్వుతాడ	-12.3437
▁పానీయాలు	-12.3437
▁చనిపోతున్నాను	-12.3443
▁అమ్మాయిలతో	-12.3443
▁స్టేట్స్లో	-12.3443
హాల్	-12.3444
▁ప్రేమించడు	-12.3444
▁disagreed	-12.3446
▁వివరించడం	-12.3446
▁తొలగించార	-12.3446
▁అర్థమవుతుంద	-12.3446
▁చేరాడు	-12.3448
▁విడిపోవ	-12.3448
▁climbing	-12.345
▁సభ్యులు	-12.3455
▁వనరులు	-12.3459
head	-12.346
▁విశ్వసిస్తున్న	-12.3463
▁పేజీలో	-12.3464
▁ఉపయోగించారు	-12.3465
వహిస్తుంది	-12.3466
▁handy	-12.3467
▁ఒకడిని	-12.3468
▁రంగులు	-12.3471
▁చెడ్డద	-12.3471
▁తెచ్చారు	-12.3473
▁చంపబడ	-12.3473
▁లాయ	-12.3476
▁Br	-12.3477
▁నడిచి	-12.3478
▁చెల్లించడం	-12.3479
▁పెట్టాను	-12.348
▁కర్తవ్యం	-12.3486
▁బ్యాటరీల	-12.3486
▁theft	-12.3488
గళ	-12.3489
▁skills	-12.3491
▁marks	-12.3491
▁protected	-12.3492
tract	-12.3492
▁పొగతాగవద్ద	-12.3493
▁colder	-12.3493
చదువుతున్నప్పుడు	-12.3494
▁అమ్ముతున్నార	-12.3495
జార్	-12.3495
▁ఉల్లిపాయల	-12.3496
▁roll	-12.3497
▁వృద్ధుల	-12.3498
▁photographs	-12.3499
▁dolls	-12.3504
▁goat	-12.3506
▁squirrels	-12.3509
▁వార్తాపత్రికలు	-12.3509
▁మంచిదా	-12.3509
▁నవ్వుతున్నాడ	-12.3513
▁చేసుకుంటుంద	-12.3526
▁ఏళ్ళు	-12.3527
▁చదివే	-12.3544
గలవ	-12.3544
▁పగలగొట్టార	-12.3553
▁గైర్హాజరయ్యా	-12.3555
నడుస్తున్నప్పుడు	-12.3556
రిపోయాయి	-12.3558
▁నవ్విస్తా	-12.3558
▁ఉండద	-12.356
▁వరద	-12.3565
▁ఆశిస్తున్నార	-12.3569
ency	-12.3575
▁వ్యవహరిస్తా	-12.3575
▁ants	-12.3576
▁అభిప్రాయపడ్డా	-12.3578
▁మోగించ	-12.3592
▁పెట్టి	-12.3608
▁నమ్మాల	-12.3614
▁క్రమ	-12.3615
▁వెళ	-12.3618
ిస్తున్నారా	-12.3622
▁పేదలు	-12.3626
▁వేసే	-12.3626
▁కలుసుకున్న	-12.3628
ాస్ట్	-12.3629
▁బిట్	-12.3631
▁ఆశ్చర్యపోత	-12.3633
▁నివసించాల	-12.3633
▁విచారకరం	-12.3638
కింగ్	-12.3642
▁సహచరుల	-12.3644
▁వెళుతున్నాడ	-12.3645
▁ఆగిపోతుంద	-12.3652
▁పత్రికల	-12.3659
▁ఆహ్వానించబడ	-12.3663
▁బయలుదేరవచ్చ	-12.3667
▁చేసుకోకూడద	-12.3668
eath	-12.3679
టాడు	-12.3681
alentin	-12.3682
car	-12.3683
▁చేసుకోలేద	-12.369
▁అనుకుంటున్నా	-12.3691
▁దొంగిలించాడ	-12.3707
గుతుంది	-12.3713
ొకటి	-12.3722
dding	-12.3727
▁బంగాళాదుంప	-12.3727
rail	-12.3733
▁పడక	-12.3748
లైన	-12.3754
▁అరుస్తున్న	-12.3758
▁సీతాకోకచిలుకల	-12.376
▁పెరిగిన	-12.3763
▁భిన్నమైన	-12.3769
తున్నాయి	-12.3771
డతాము	-12.3774
▁నమ్మవచ్చ	-12.3775
▁అస్థిర	-12.3775
▁గుర్తుంచుకుంటార	-12.3784
▁మరచిపోత	-12.3787
▁ఆక్రమించ	-12.3798
▁గర్వపడాల	-12.38
▁తయారవుత	-12.3805
▁నమ్మలేద	-12.381
▁బహిష్కరించ	-12.3817
▁కాలిపోయ	-12.3838
▁కేంద్ర	-12.3872
▁కావాల్సిన	-12.3877
ాపక	-12.3906
పరంగా	-12.3909
ంచాను	-12.3914
▁గెలవలేన	-12.3914
▁సూచించిన	-12.392
పోతున్నాను	-12.3922
▁తప్పిపోయిన	-12.3936
▁సగ	-12.3942
▁ఉత్సాహ	-12.3956
▁మరమ్మతుల	-12.3968
▁ple	-12.397
▁అహంకార	-12.3974
▁వింటున్నార	-12.3982
▁వదిలివేస్త	-12.3982
ున్నాం	-12.3991
oman	-12.3991
ితమైన	-12.3992
▁భయపడ్డా	-12.3993
వేసింది	-12.4002
ఎస్	-12.4011
▁ఎదుర్కో	-12.4014
▁whi	-12.402
▁కాలే	-12.4026
▁మాట్లాడగలన	-12.4033
▁వస్తువు	-12.4033
▁north	-12.4037
▁పుట్టగొడుగుల	-12.4038
▁నుంచ	-12.404
▁కలుసుకున్నాడ	-12.4042
▁dive	-12.4043
▁వాయించార	-12.4062
▁చింతిస్తున్నార	-12.4078
▁బద	-12.4097
▁పొందగలిగ	-12.4101
▁బట్	-12.4128
▁దాటవే	-12.413
▁పెరిగ	-12.4145
▁చెబుతున్న	-12.4146
yo	-12.4166
▁ఎన్నుకో	-12.4173
▁వ్యా	-12.4179
క్షేమం	-12.4179
▁ముద్దుపెట్టుకోవ	-12.418
▁వరదల	-12.4181
day	-12.4187
ేమైనా	-12.4191
▁చనిపోతున్నాడ	-12.4191
▁గైర్హాజర	-12.4192
▁జింక	-12.4197
వేళ	-12.4198
▁చంపబోతున్నార	-12.42
▁గడుపుత	-12.4212
▁సిగరెట్ల	-12.4213
▁చూడకూడద	-12.4241
▁గుహ	-12.4252
▁నిర్మాణ	-12.4259
▁అదృష్టవంతుల	-12.4263
▁పురుషులందర	-12.427
క్సింగ్	-12.4273
▁కుటుంబాల	-12.4275
▁తెలుసుకోవాలనుకో	-12.4278
▁హెచ్చరించలేద	-12.4298
▁వ్రాసిన	-12.43
▁అధికార	-12.4306
బెల్	-12.4312
minute	-12.4313
ద్వారా	-12.4316
▁విదేశీయుల	-12.4318
▁పానీయాల	-12.4319
▁బహుమతుల	-12.4321
▁నమ్ముతున్నాన	-12.4322
▁వైద్యుల	-12.4323
fire	-12.4323
▁ఖర్చవుత	-12.4323
well	-12.4324
▁అదృశ్య	-12.4324
▁పర్యాటక	-12.4329
▁ఎత్తి	-12.433
▁గ్రహ	-12.4334
▁హంతకుడ	-12.4335
▁సైన్యం	-12.4338
▁వెళ్తున్నామ	-12.4346
▁బాత్రూం	-12.4347
▁బదులు	-12.4348
▁మానవుల	-12.4353
స్తాడ	-12.4354
▁నియామక	-12.4363
▁reserve	-12.4364
▁achieve	-12.4365
▁crow	-12.4366
▁రోడ్	-12.4366
▁నిలబడ్డా	-12.4368
▁defeat	-12.4368
▁punish	-12.4368
▁delay	-12.4368
▁destroy	-12.4369
▁స్క్ర	-12.4369
▁ప్రారంభమవుతుంద	-12.4371
▁app	-12.4375
▁బ్యాక	-12.4376
▁సూట	-12.4376
▁తీర్మాన	-12.4376
▁సరసమైన	-12.4376
▁ఉత్తేజకరమైన	-12.4376
▁మృదువైన	-12.4377
కాయలు	-12.4378
▁robber	-12.4378
▁wealth	-12.4378
▁cent	-12.4378
గలిగారు	-12.4378
▁చెలరేగ	-12.4379
▁im	-12.4379
▁potato	-12.438
▁శ్ర	-12.438
▁షార్	-12.438
▁అభి	-12.438
▁prince	-12.438
▁దెబ్బతి	-12.438
▁reflect	-12.438
▁సంక్లిష్ట	-12.4381
▁diploma	-12.4381
▁confident	-12.4381
▁occur	-12.4381
నిరోధ	-12.4381
edicine	-12.4381
▁kidnap	-12.4381
▁వంచ	-12.4381
▁జాక్	-12.4381
▁బ్లైండ్	-12.4381
▁లక్షల	-12.4381
▁వ్యవహారాల	-12.4381
▁సాయుధ	-12.4381
hampagne	-12.4381
▁CIA	-12.4381
▁Greek	-12.4381
▁January	-12.4381
▁Jesus	-12.4381
▁Thirteen	-12.4381
▁Thursday	-12.4381
▁acknowledge	-12.4381
▁acquire	-12.4381
▁airmail	-12.4381
▁applauded	-12.4381
▁approximate	-12.4381
▁attorney	-12.4381
▁awkward	-12.4381
▁backpack	-12.4381
▁blouse	-12.4381
▁bracelet	-12.4381
▁cliff	-12.4381
▁composition	-12.4381
▁confidence	-12.4381
▁convenient	-12.4381
▁elbow	-12.4381
▁explore	-12.4381
▁flame	-12.4381
▁gambling	-12.4381
▁garlic	-12.4381
▁hometown	-12.4381
▁instantly	-12.4381
▁muscle	-12.4381
▁negative	-12.4381
▁obsess	-12.4381
▁occupied	-12.4381
▁overslept	-12.4381
▁physics	-12.4381
▁positive	-12.4381
▁promoted	-12.4381
▁quarter	-12.4381
▁scandal	-12.4381
▁shampoo	-12.4381
▁solving	-12.4381
▁species	-12.4381
▁steak	-12.4381
▁sweep	-12.4381
▁thumb	-12.4381
▁timid	-12.4381
▁title	-12.4381
▁tunnel	-12.4381
▁tuxedo	-12.4381
▁typical	-12.4381
▁whale	-12.4381
▁whiskey	-12.4381
▁అంటువ్యాధి	-12.4381
▁అనివార్యం	-12.4381
▁అనుసంధానించ	-12.4381
▁ఆశ్చర్యపోయారు	-12.4381
▁ఉక్కిరిబిక్కిరి	-12.4381
▁ఏమనుకుంటున్నాడ	-12.4381
▁ఏమైనప్పటికీ	-12.4381
▁క్లయింట్	-12.4381
▁గడిచింది	-12.4381
▁గురువార	-12.4381
▁చెప్పబోయేది	-12.4381
▁చెరకు	-12.4381
▁జనవరి	-12.4381
▁టెలిగ్రా	-12.4381
▁డాక్యుమెంటరీ	-12.4381
▁తక్సేడో	-12.4381
▁తాతామామల	-12.4381
▁తెలిపింది	-12.4381
▁తొలి	-12.4381
▁త్యాగ	-12.4381
▁థాయ్	-12.4381
▁దిగజార్చ	-12.4381
▁దుర్వినియోగం	-12.4381
▁నల్లబల్ల	-12.4381
▁నిరాడంబర	-12.4381
▁నిరాశావాది	-12.4381
▁నిర్ధారణ	-12.4381
▁నౌకల	-12.4381
▁పరిశ్రమ	-12.4381
▁పుచ్చకాయ	-12.4381
▁ప్రకృతి	-12.4381
▁ప్రముఖ	-12.4381
▁ప్రమోషన్	-12.4381
▁ప్రాధాన్యత	-12.4381
▁బహిర్	-12.4381
▁బోధన	-12.4381
▁బ్రహ్మచారి	-12.4381
▁భ్రమ	-12.4381
▁మనస్తాప	-12.4381
▁ముప్పు	-12.4381
▁రెసిపీ	-12.4381
▁వక్త	-12.4381
▁వాణిజ్య	-12.4381
▁వికసించ	-12.4381
▁విపత్తు	-12.4381
▁విషాద	-12.4381
▁శాంతియుత	-12.4381
▁షర్ట్	-12.4381
▁షాంపైన్	-12.4381
▁సన్యాసి	-12.4381
▁సమర్థుడ	-12.4381
▁సామాజిక	-12.4381
▁సొరంగ	-12.4381
▁Napoleon	-12.4381
▁loving	-12.4381
▁root	-12.4381
▁zero	-12.4381
▁అంధుడ	-12.4381
▁క్రైస్తవ	-12.4381
▁చెల్లింపు	-12.4381
▁తగలబెట్ట	-12.4381
▁దురద	-12.4381
▁నిష్ణాతులు	-12.4381
▁పరిష్కరిస్తా	-12.4381
▁పలక	-12.4381
▁పశువుల	-12.4381
▁పెరుగుదల	-12.4381
▁ప్రదర్శించ	-12.4381
▁ప్రార్థించ	-12.4381
▁మెత్త	-12.4381
▁యువరాజు	-12.4381
▁యేసు	-12.4381
stream	-12.4381
▁amateur	-12.4381
▁freedom	-12.4381
▁ఆకర్షితుడయ్యా	-12.4381
▁గుమిగూడ	-12.4381
▁ప్రతిపాదించ	-12.4381
▁బాధాకరం	-12.4381
▁మర్యాదపూర్వక	-12.4381
▁స్క్వ	-12.4381
biased	-12.4381
▁jar	-12.4381
▁దేశీయ	-12.4381
▁olive	-12.4381
▁role	-12.4381
▁skinny	-12.4381
▁కోణం	-12.4381
▁నిల్వ	-12.4381
దళం	-12.4381
▁opposite	-12.4381
▁సంస్కరణ	-12.4381
▁బేర్	-12.4381
▁వాష్	-12.4381
▁నలుగుర	-12.4381
▁panda	-12.4381
▁తెలివిగలవాడ	-12.4381
▁చేదు	-12.4381
▁వేటగాడు	-12.4381
▁పెడతా	-12.4381
▁ease	-12.4381
▁massage	-12.4381
▁typewriter	-12.4381
▁disaster	-12.4381
▁flashlight	-12.4381
▁తుది	-12.4381
▁నేర్పుతార	-12.4381
▁rust	-12.4381
▁మూర్ఖత్వం	-12.4381
▁code	-12.4381
▁breed	-12.4381
▁ninety	-12.4381
పూట	-12.4381
▁ఆపరేట	-12.4381
▁Hope	-12.4381
▁icy	-12.4381
rubbed	-12.4381
olice	-12.4381
▁గాలిపట	-12.4381
▁గొట్ట	-12.4381
▁essay	-12.4381
▁బ్రౌ	-12.4381
▁సేఫ్	-12.4381
▁సరైనదేనా	-12.4381
▁rug	-12.4382
▁సహాయకుడి	-12.4382
▁పదేళ్ళు	-12.4382
▁unpredictable	-12.4382
▁పద్యం	-12.4382
▁ఏడుస్తాను	-12.4382
▁వెళ్లిపోత	-12.4382
▁sailor	-12.4382
▁attach	-12.4382
▁మిషన్	-12.4382
▁జాకెట్టు	-12.4382
▁Desp	-12.4382
▁10:00	-12.4382
▁అరవడం	-12.4382
▁వాయించేవాడు	-12.4382
▁heels	-12.4383
▁treatment	-12.4383
▁ఉత్తీర్ణులయ్యార	-12.4383
▁పాకెట్	-12.4383
▁బ్రతిక	-12.4383
▁అనుమతిస్తారా	-12.4383
▁standard	-12.4383
▁హాత్మక	-12.4383
▁comic	-12.4383
▁డిష్	-12.4383
▁veter	-12.4383
▁కోరుకోకపోతే	-12.4383
▁సాదా	-12.4383
▁universe	-12.4383
▁relief	-12.4383
▁ఫిష్	-12.4383
రెల్	-12.4384
▁మూసివేయబడ్డాయి	-12.4384
▁కోతి	-12.4384
▁తాగుదాం	-12.4384
▁discovery	-12.4384
▁గార్డ్	-12.4384
▁beans	-12.4384
▁రాసే	-12.4384
▁remarkable	-12.4384
▁shortage	-12.4384
▁వ్యయ	-12.4384
▁భయపెడుతున్నారు	-12.4384
▁చేసుకోగలను	-12.4385
▁లేనివారు	-12.4385
▁పండిన	-12.4385
▁అయినట్లు	-12.4385
▁కోల్పోవట	-12.4385
▁లేనివాడు	-12.4386
▁పఠనం	-12.4386
▁పోయాయి	-12.4386
▁బేక	-12.4386
▁గెలిచింది	-12.4386
తనం	-12.4386
▁పసి	-12.4387
▁చెప్పబోతున్నారా	-12.4387
▁anticipate	-12.4387
▁తీసుకుంటాన	-12.4387
▁ట్రై	-12.4387
▁చేయగలిగారు	-12.4387
▁కష్టమవుతుంది	-12.4387
▁passion	-12.4387
▁గెలిచ	-12.4387
▁apply	-12.4387
▁someplace	-12.4388
▁adventure	-12.4388
▁parties	-12.4389
▁bless	-12.4389
▁Ex	-12.4389
▁కలుస్తానని	-12.4389
▁నడుస్తున్నారు	-12.4389
print	-12.4389
▁ప్రత్యేకత	-12.439
▁బ్యాక్	-12.439
▁accompanie	-12.439
▁collapsed	-12.4391
▁distracted	-12.4391
▁తెలియక	-12.4391
▁ముఖ్యమైనవి	-12.4391
▁phrase	-12.4392
▁బొటనవేలు	-12.4392
▁వహిస్తారు	-12.4392
్యులేట	-12.4393
▁క్షమించలే	-12.4393
▁పదునైనది	-12.4393
▁ఆడదాం	-12.4393
▁నచ్చుతుంది	-12.4394
▁టీనేజ	-12.4395
▁sharpened	-12.4395
▁గీసాడు	-12.4396
▁అవత	-12.4396
▁invest	-12.4396
▁బాగుంటా	-12.4396
▁క్యూట	-12.4397
▁వుంది	-12.4397
▁relieved	-12.4398
▁సాహిత్యం	-12.4398
▁నిరుద్యోగి	-12.4398
▁ఇవ్వగలను	-12.4398
▁నవ్వుతారు	-12.4398
▁addicted	-12.4399
▁అనుకున్నట్లు	-12.4399
▁వారందరూ	-12.44
▁rats	-12.44
▁ఎఫ్	-12.4401
▁tightly	-12.4401
▁ప్రభావ	-12.4402
▁బ్రూ	-12.4402
▁ట్రో	-12.4403
▁sweating	-12.4403
▁వెళ్ళగలరా	-12.4403
▁విశ్వసించలేదు	-12.4403
▁జపనీయులు	-12.4404
▁రేఖ	-12.4404
▁చేయాలనుకుంటే	-12.4404
▁cable	-12.4405
▁తొలగించబడ్డార	-12.4406
▁తినగలను	-12.4406
▁తొలగించబడతాడ	-12.4406
▁objected	-12.4406
▁పాల్గొన్నార	-12.4407
శాడు	-12.4407
▁packing	-12.4407
▁ఆహ్వానించలేదు	-12.4408
▁torn	-12.4409
▁దూకడం	-12.441
▁చనిపోతార	-12.441
▁puzzled	-12.441
hill	-12.441
▁ఆనందిస్తాన	-12.441
▁అనుభవించాడ	-12.441
▁తోడేళ్ళు	-12.4411
▁రక్షిస్తా	-12.4412
డియా	-12.4413
▁hu	-12.4413
▁ఇరు	-12.4415
▁survivors	-12.4415
▁tricked	-12.4415
▁తీవ్రమైనది	-12.4417
▁ప్రవేశించారు	-12.4418
▁కిలోలు	-12.4418
క్ట్	-12.4418
▁తింటున్నారు	-12.4418
▁వివరించగలను	-12.4418
▁నమ్మాలి	-12.4422
▁గొప్పవాడు	-12.4422
▁లెక్కిస్తున్నా	-12.4424
▁చూడలేకపోయాడు	-12.4425
▁పైకప్పుపై	-12.4426
ctors	-12.4427
▁చేసేద	-12.4428
▁ల్యాండ్	-12.4428
▁మంచివాడిని	-12.4429
▁ధైర్యవంతుడు	-12.4434
▁తెలిసినట్లుగా	-12.4435
▁ఉపయోగిస్తాడ	-12.4436
▁ఇష్టపడ్డారు	-12.4437
▁వెళ్తాడా	-12.4438
▁స్టీక్	-12.4439
▁పౌండ్లు	-12.4439
▁విదేశీయులు	-12.4444
▁నిజమా	-12.4449
▁కనుగొనండి	-12.445
▁సందర్శించాలి	-12.445
▁గెలవబోతున్నాన	-12.4451
▁వెర్రివాడి	-12.4451
▁సాధించడం	-12.4452
▁ప్రయత్నిస్తే	-12.4452
▁విడిచిపెట్టారు	-12.4453
▁విధంగానే	-12.4455
▁వినగలిగా	-12.4455
▁పరిగెత్తుకుంట	-12.4457
▁తీసుకెళ్లాడు	-12.4457
▁నేర్చుకున్న	-12.4457
▁పిలవవద్దు	-12.4457
▁accordi	-12.4458
▁విధుల	-12.4459
▁పరికరాల	-12.4462
▁boo	-12.4462
▁relieve	-12.4467
▁మాట్లాడలేడ	-12.4468
▁చూస్తున్నాన	-12.4469
▁ఆశించాడు	-12.4472
▁చూపించారు	-12.4478
▁shortly	-12.4478
▁జరుపుకోవడ	-12.4478
▁అనుక	-12.4479
▁చేరడానికి	-12.448
▁సంకేతాల	-12.4482
▁ఆడుతున్నార	-12.4484
▁జారిపోయా	-12.4486
▁చెప్పింద	-12.4486
▁heating	-12.4487
ison	-12.4492
▁బయలుదేరండి	-12.4492
▁చాట	-12.4496
▁ఆలోచిస్తున్నాడ	-12.4499
▁పాడింది	-12.4503
▁పాటల	-12.4516
▁fixing	-12.4521
▁నివసిస్తుంద	-12.4523
▁బై	-12.4531
▁రక్షించగల	-12.4532
▁మంచివార	-12.4535
▁సమూహం	-12.4536
▁పొందార	-12.4542
▁పత్రం	-12.4542
▁planting	-12.4545
▁చూడగలిగా	-12.456
▁ఉడికించాల	-12.4561
ర్జీ	-12.4563
▁ఫ్రీ	-12.4564
▁క్లిష్టమైన	-12.4565
wl	-12.4575
▁కొట్టలేర	-12.4575
జన్	-12.4586
▁వీపున	-12.4588
▁చెందినద	-12.459
▁ఉంచవచ్చ	-12.4592
▁అంగీకరించామ	-12.4595
▁pin	-12.4597
▁జారిపోయ	-12.4598
▁బహిష్కరించబడ్డా	-12.4604
ుకోవటానికి	-12.4605
▁సరిదిద్దుకున్నా	-12.4606
ink	-12.4608
▁అడ్డ	-12.4611
▁విస్మరిస్తున్న	-12.4612
▁గర్విస్తున్నా	-12.4613
▁తీసుకువెళుతున్న	-12.4624
ప్తి	-12.463
▁నేర్పిస్తున్నా	-12.4644
▁ఏకీభవించలేద	-12.4648
▁జారే	-12.465
▁dev	-12.4651
▁గురై	-12.4674
▁మూసివేసి	-12.4677
▁లెక్క	-12.468
▁చేసుకున్నాన	-12.4693
▁అవుతున్న	-12.4696
▁హె	-12.4697
బోర్డ	-12.4712
▁పాఠ్యపుస్తకాల	-12.4719
▁కదులుతున్నా	-12.4739
▁అడ్డుకున్నా	-12.475
▁పాడగల	-12.4754
▁తెరవాల	-12.4759
▁అనూహ్యమైన	-12.4769
▁దాచాడ	-12.4774
▁మిలియన్ల	-12.4777
▁అలసిపోయార	-12.4779
▁సహాయపడింద	-12.4792
▁కవలల	-12.4805
▁దుకాణాల	-12.4823
▁claim	-12.4824
▁పేపర్ల	-12.4829
▁పోషిస్త	-12.4831
rated	-12.4843
▁తీసిన	-12.4853
▁స్ట్రాబెర్రీ	-12.4854
cket	-12.4862
▁శిక్షించబడతా	-12.4865
మెన్	-12.4869
eel	-12.4879
▁కొడతాడ	-12.488
▁ముఖ్యమైనద	-12.4882
▁విశ్వసించగలమ	-12.4884
మవుతుంది	-12.4886
▁బాగ	-12.4888
▁విన్నార	-12.4895
▁కేంద్రం	-12.4917
▁ఉంటున్న	-12.4924
▁పడుకోవచ్చ	-12.4925
▁మాట్లాడగలద	-12.494
▁ఆశ్చర్యపోతార	-12.4944
▁ఎగురుతున్న	-12.4944
▁చివర	-12.4946
▁ముఖ్య	-12.4946
▁install	-12.4949
▁Bi	-12.495
ళా	-12.4956
▁మాట్లాడలేమ	-12.4961
▁హాజరయ్యా	-12.4964
▁గీసుకున్నా	-12.4965
▁ec	-12.4971
ఖం	-12.4986
▁వణుకుత	-12.4987
▁వెంటాడ	-12.4994
ote	-12.4995
▁వెళ్ళార	-12.5002
▁విరిగిపో	-12.5007
▁పెట్టుకున్నార	-12.5009
▁advis	-12.5028
rush	-12.5033
▁ఆలోచిస్తున్న	-12.5033
▁బోధిస్త	-12.5036
▁ఆస్వాదించాన	-12.5048
▁East	-12.5068
ept	-12.507
▁కోల్పోతున్నాడ	-12.5073
aimed	-12.5082
▁Foo	-12.5122
▁ప్రారంభిస్త	-12.5136
▁అమ్మాల	-12.5153
▁పట్టుకుంటార	-12.5154
▁విర	-12.5162
▁ఒకదానిక	-12.5163
▁స్నేహితులందరిక	-12.5168
▁భావ	-12.5169
యిన్	-12.5174
▁తార్కికం	-12.5179
▁కడుగుతున్నా	-12.5184
▁అంటుకో	-12.5191
▁విశ్వసిస్త	-12.5193
▁నిర్వహించాల	-12.5193
▁పనిచేస్తున్నా	-12.5193
▁మాట్లాడుతార	-12.5202
▁కొట్టలేన	-12.5227
▁పైబడి	-12.5229
తుందని	-12.5229
▁కూర్చోవడ	-12.525
▁బాధపడుతున్నార	-12.526
▁nation	-12.5262
▁మినహాయింపుల	-12.5264
▁పరిశీల	-12.5273
▁శాస్త్రవేత్తల	-12.529
పోయే	-12.5294
▁చేయాలనుకున్నద	-12.5296
▁తప్పిపోయి	-12.5301
ix	-12.5303
▁ఆయుధ	-12.5315
ంతవరకు	-12.5322
▁విశ్వసించాల	-12.5322
ిసిన	-12.5334
▁పంచ	-12.5339
▁ఆశ్చర్యపరుస్త	-12.5342
ైన్స్	-12.5343
దవ	-12.5344
రికే	-12.5346
▁కరిచ	-12.5357
▁ఇప్పటి	-12.5359
సిస్	-12.5372
▁న్యాయ	-12.5373
▁దొంగల	-12.5379
▁నిర్వ	-12.5381
క్కడే	-12.5391
oose	-12.5393
itch	-12.5393
▁దాటుత	-12.5394
▁తింటార	-12.5402
▁nail	-12.5402
▁option	-12.5404
▁vegetable	-12.5404
▁రాశార	-12.5406
nother	-12.5406
▁శక్తివంత	-12.5423
▁ఫోర్	-12.5423
▁చర్చిస్తా	-12.5424
willing	-12.5424
పక్క	-12.5424
▁దాచిపెట్ట	-12.5424
F	-12.5424
ఫై	-12.5425
great	-12.5425
You	-12.5425
రసం	-12.5425
చేతి	-12.5426
మూల	-12.5428
▁ఇష్టపడ్డార	-12.543
▁కోల్పోతామ	-12.5431
▁అదృష్టవంతుడ	-12.5431
▁కోల్పోతార	-12.5432
▁పిలుస్తార	-12.5432
▁ఉప్ప	-12.5432
food	-12.5433
▁నేలమాళిగ	-12.5433
▁మాట్లాడతాడ	-12.5434
సై	-12.5437
▁ఉంచాన	-12.5438
▁సూర్యు	-12.5446
▁గృహ	-12.5447
▁మారుతున్నాయ	-12.545
▁drum	-12.5454
▁mug	-12.5456
cial	-12.5457
▁సంకల్ప	-12.5459
▁నిండిపోయా	-12.5461
పరిచే	-12.5462
▁నాటక	-12.5462
నాశన	-12.5464
▁అంగుళ	-12.5467
▁shout	-12.5471
▁అసూయపడే	-12.5471
▁సమాజం	-12.5473
▁సంవత్సర	-12.5474
done	-12.5475
క్తి	-12.5475
▁deceive	-12.5475
▁discover	-12.5477
▁faith	-12.5478
▁settle	-12.5478
▁bake	-12.5478
▁approve	-12.5479
▁blackmail	-12.5479
లోనూ	-12.5479
▁whisper	-12.5479
▁spoil	-12.548
▁blush	-12.548
▁bore	-12.548
▁సింహ	-12.5481
▁కండ	-12.5481
▁accompan	-12.5481
▁వీలైన	-12.5482
▁Ju	-12.5482
▁పూర్తయింద	-12.5482
▁మూసివేయబడింద	-12.5482
▁పిలవబోతున్నా	-12.5482
▁చంద్రుడి	-12.5482
▁constant	-12.5486
▁సంభవించ	-12.5487
▁sew	-12.5487
▁imitat	-12.5487
▁వెళుతున్నార	-12.5487
tory	-12.5488
▁necessar	-12.5489
వశాత్తు	-12.5489
▁లొంగిపో	-12.5489
▁కలిగిస్తుంద	-12.549
మ్మర్	-12.5491
▁mosquito	-12.5491
▁శత్రు	-12.5491
degree	-12.5491
graph	-12.5492
▁wrap	-12.5492
▁వలస	-12.5492
ూతన	-12.5492
ూర్ణం	-12.5492
▁ద్రవ	-12.5492
▁పక్షపాతం	-12.5492
izz	-12.5492
ీకృత	-12.5492
▁blossom	-12.5492
▁jerk	-12.5492
▁process	-12.5492
▁renew	-12.5492
▁sixteen	-12.5492
▁wreck	-12.5492
▁yawn	-12.5492
▁అనువైన	-12.5492
▁అసమర్థ	-12.5492
▁ఉచ్చారణ	-12.5492
▁కలుసుకో	-12.5492
▁తమ్ముడి	-12.5492
▁పొదుపు	-12.5492
▁ప్రతిచర్య	-12.5492
▁ప్రవాహ	-12.5492
▁బాధాకరమైన	-12.5492
▁బొచ్చు	-12.5492
▁బ్లూ	-12.5492
▁భాగస్వాముల	-12.5492
▁మోచేయి	-12.5492
▁వాహన	-12.5492
▁విశ్వాసం	-12.5492
▁షరతు	-12.5492
burden	-12.5492
decisive	-12.5492
dvertising	-12.5492
stronomy	-12.5492
ఫ్రెష్	-12.5492
▁Claus	-12.5492
▁Congress	-12.5492
▁Human	-12.5492
▁Mozart	-12.5492
▁Ocean	-12.5492
▁September	-12.5492
▁Stick	-12.5492
▁aliens	-12.5492
▁angrily	-12.5492
▁appropriate	-12.5492
▁aspirin	-12.5492
▁banjo	-12.5492
▁broad	-12.5492
▁calculator	-12.5492
▁candidate	-12.5492
▁chopsticks	-12.5492
▁contagious	-12.5492
▁convicted	-12.5492
▁criticism	-12.5492
▁dashed	-12.5492
▁economic	-12.5492
▁emotion	-12.5492
▁envy	-12.5492
▁evacuate	-12.5492
▁extraordinary	-12.5492
▁fingerprints	-12.5492
▁folk	-12.5492
▁forbidden	-12.5492
▁generation	-12.5492
▁grammar	-12.5492
▁handcuffs	-12.5492
▁indoors	-12.5492
▁inspire	-12.5492
▁intimidate	-12.5492
▁inviting	-12.5492
▁joy	-12.5492
▁luxury	-12.5492
▁magnificent	-12.5492
▁maintain	-12.5492
▁nickname	-12.5492
▁occasion	-12.5492
▁pancakes	-12.5492
▁pathetic	-12.5492
▁pause	-12.5492
▁penalty	-12.5492
▁pharmacy	-12.5492
▁potential	-12.5492
▁presence	-12.5492
▁priorit	-12.5492
▁procedure	-12.5492
▁promising	-12.5492
▁railroad	-12.5492
▁refugee	-12.5492
▁rugby	-12.5492
▁scientific	-12.5492
▁silk	-12.5492
▁slapp	-12.5492
▁sneezing	-12.5492
▁snoring	-12.5492
▁stadium	-12.5492
▁staff	-12.5492
▁struggle	-12.5492
▁thorough	-12.5492
▁trombone	-12.5492
▁unacceptable	-12.5492
▁unique	-12.5492
▁vocabulary	-12.5492
▁voyage	-12.5492
▁అడుగుతూ	-12.5492
▁అమాయకుడిని	-12.5492
▁అసహ్యకరమైన	-12.5492
▁ఆచారాల	-12.5492
[...]
